{
  "vocab": {
    "0": 35,
    "1": 31,
    "2": 30,
    "3": 42,
    "4": 38,
    "5": 46,
    "6": 48,
    "7": 47,
    "8": 39,
    "9": 49,
    "10": 4572,
    "11": 3882,
    "12": 5206,
    "13": 12015,
    "14": 7591,
    "15": 4667,
    "17": 6366,
    "18": 5500,
    "19": 5047,
    "20": 4903,
    "23": 10753,
    "24": 5864,
    "25": 4804,
    "27": 7388,
    "28": 8221,
    "29": 6368,
    "30": 3090,
    "35": 5855,
    "36": 7102,
    "39": 6981,
    "40": 9993,
    "44": 5518,
    "45": 9188,
    "48": 11034,
    "49": 9210,
    "52": 13658,
    "55": 4999,
    "64": 11255,
    "65": 8841,
    "68": 5340,
    "74": 11454,
    "75": 14068,
    "77": 10184,
    "80": 5465,
    "85": 14985,
    "88": 6367,
    "90": 8484,
    "91": 11952,
    "97": 10039,
    "111": 11660,
    "128": 10856,
    "195": 13138,
    "198": 12404,
    "329": 13516,
    "500": 4016,
    "618": 14530,
    "910": 12296,
    "2727": 13905,
    "<PAD>": 0,
    "<UNK>": 1,
    "<BOS>": 2,
    "<EOS>": 3,
    "▁": 4,
    "w": 5,
    "a": 6,
    "r": 7,
    "u": 8,
    "n": 9,
    "g": 10,
    "i": 11,
    "d": 12,
    "m": 13,
    "l": 14,
    "k": 15,
    "o": 16,
    "e": 17,
    "h": 18,
    "p": 19,
    "s": 20,
    "b": 21,
    "t": 22,
    "y": 23,
    ".": 24,
    ",": 25,
    "v": 26,
    "j": 27,
    "c": 28,
    "!": 29,
    "-": 32,
    "f": 33,
    "x": 34,
    "%": 36,
    "?": 37,
    "z": 40,
    ":": 41,
    "/": 43,
    "q": 44,
    "_": 45,
    ";": 50,
    "J": 51,
    "=": 52,
    "<": 53,
    "$": 54,
    ">": 55,
    "(": 56,
    ")": 57,
    "an": 58,
    "▁s": 59,
    "▁d": 60,
    "▁m": 61,
    "ak": 62,
    "en": 63,
    "▁b": 64,
    "ya": 65,
    "ang": 66,
    "▁k": 67,
    "▁t": 68,
    "ar": 69,
    "er": 70,
    "at": 71,
    "▁p": 72,
    "in": 73,
    "▁n": 74,
    "as": 75,
    "al": 76,
    "am": 77,
    "un": 78,
    "▁nya": 79,
    "ah": 80,
    "▁di": 81,
    "em": 82,
    "▁l": 83,
    "yang": 84,
    "▁r": 85,
    "uk": 86,
    "▁yang": 87,
    "▁se": 88,
    "akan": 89,
    "▁j": 90,
    "eng": 91,
    "▁dan": 92,
    "ad": 93,
    "ap": 94,
    "ga": 95,
    "▁sa": 96,
    "el": 97,
    "es": 98,
    "▁h": 99,
    "ik": 100,
    "▁c": 101,
    "▁men": 102,
    "▁makan": 103,
    "or": 104,
    "it": 105,
    "ini": 106,
    "is": 107,
    "ung": 108,
    "id": 109,
    "▁ke": 110,
    "ing": 111,
    "ag": 112,
    "ih": 113,
    "▁ter": 114,
    "au": 115,
    "▁ber": 116,
    "ur": 117,
    "us": 118,
    "emp": 119,
    "▁tid": 120,
    "et": 121,
    "on": 122,
    "▁tidak": 123,
    "il": 124,
    "um": 125,
    "▁saya": 126,
    "and": 127,
    "ok": 128,
    "engan": 129,
    "▁dengan": 130,
    "ari": 131,
    "enak": 132,
    "empat": 133,
    "▁un": 134,
    "▁g": 135,
    "▁enak": 136,
    "▁makanan": 137,
    "▁ini": 138,
    "▁tempat": 139,
    "ai": 140,
    "ada": 141,
    "tuk": 142,
    "▁untuk": 143,
    "▁su": 144,
    "ir": 145,
    "kan": 146,
    "ama": 147,
    "▁ju": 148,
    "asi": 149,
    "ut": 150,
    "arga": 151,
    "ul": 152,
    "▁mem": 153,
    "ek": 154,
    "ay": 155,
    "asa": 156,
    "up": 157,
    "ot": 158,
    "▁juga": 159,
    "ant": 160,
    "asan": 161,
    "ba": 162,
    "▁ada": 163,
    "▁kal": 164,
    "▁w": 165,
    "angat": 166,
    "ja": 167,
    "om": 168,
    "est": 169,
    "api": 170,
    "▁per": 171,
    "eb": 172,
    "ol": 173,
    "ed": 174,
    "amp": 175,
    "▁sangat": 176,
    "ti": 177,
    "▁dari": 178,
    "ayan": 179,
    "▁harga": 180,
    "angan": 181,
    "▁rest": 182,
    "dah": 183,
    "▁sini": 184,
    "▁kar": 185,
    "▁menu": 186,
    "itu": 187,
    "alam": 188,
    "▁band": 189,
    "▁bang": 190,
    "alah": 191,
    "yak": 192,
    "▁bandung": 193,
    "▁sek": 194,
    "ta": 195,
    "▁meng": 196,
    "▁mas": 197,
    "▁ban": 198,
    "agi": 199,
    "amb": 200,
    "ara": 201,
    "▁a": 202,
    "ena": 203,
    "adi": 204,
    "▁in": 205,
    "eh": 206,
    "ain": 207,
    "▁bis": 208,
    "▁cuk": 209,
    "▁cukup": 210,
    "▁karena": 211,
    "▁banyak": 212,
    "ikan": 213,
    "▁f": 214,
    "ong": 215,
    "▁banget": 216,
    "▁bisa": 217,
    "uat": 218,
    "▁pas": 219,
    "ab": 220,
    "▁kam": 221,
    "alu": 222,
    "▁tapi": 223,
    "im": 224,
    "ep": 225,
    "▁st": 226,
    "▁kalau": 227,
    "▁pel": 228,
    "ali": 229,
    "end": 230,
    "▁sudah": 231,
    "oran": 232,
    "▁saja": 233,
    "▁restoran": 234,
    "▁sel": 235,
    "▁pem": 236,
    "▁at": 237,
    "esan": 238,
    "▁rasa": 239,
    "eg": 240,
    "▁ba": 241,
    "▁itu": 242,
    "ati": 243,
    "▁co": 244,
    "alan": 245,
    "uka": 246,
    "asanya": 247,
    "ia": 248,
    "per": 249,
    "ud": 250,
    "▁pelayan": 251,
    "nya": 252,
    "uh": 253,
    "ilih": 254,
    "si": 255,
    "▁bak": 256,
    "▁mer": 257,
    "▁kami": 258,
    "▁jadi": 259,
    "▁rasanya": 260,
    "man": 261,
    "ua": 262,
    "▁ad": 263,
    "ita": 264,
    "apa": 265,
    "▁bi": 266,
    "▁terl": 267,
    "▁or": 268,
    "op": 269,
    "▁sat": 270,
    "ib": 271,
    "▁sem": 272,
    "wa": 273,
    "▁suasan": 274,
    "yam": 275,
    "▁kel": 276,
    "▁suasana": 277,
    "▁an": 278,
    "▁bers": 279,
    "ac": 280,
    "▁lu": 281,
    "▁1": 282,
    "▁pr": 283,
    "▁pen": 284,
    "▁buat": 285,
    "ana": 286,
    "▁2": 287,
    "os": 288,
    "▁nyaman": 289,
    "▁bar": 290,
    "▁sekali": 291,
    "▁malam": 292,
    "anya": 293,
    "▁ram": 294,
    "▁mah": 295,
    "oreng": 296,
    "▁jalan": 297,
    "atang": 298,
    "▁seper": 299,
    "ebih": 300,
    "agus": 301,
    "af": 302,
    "▁adalah": 303,
    "▁pelayanan": 304,
    "▁ind": 305,
    "aj": 306,
    "eman": 307,
    "▁ayam": 308,
    "▁kita": 309,
    "▁pilih": 310,
    "▁meny": 311,
    "▁goreng": 312,
    "▁ak": 313,
    "▁bel": 314,
    "▁dis": 315,
    "▁nasi": 316,
    "▁min": 317,
    "▁si": 318,
    "▁ya": 319,
    "andangan": 320,
    "▁suka": 321,
    "▁sama": 322,
    "▁bagus": 323,
    "▁ku": 324,
    "▁pemandangan": 325,
    "▁orang": 326,
    "apat": 327,
    "jung": 328,
    "▁pak": 329,
    "▁datang": 330,
    "angk": 331,
    "▁seperti": 332,
    "▁tah": 333,
    "▁lebih": 334,
    "▁as": 335,
    "▁atau": 336,
    "▁lagi": 337,
    "▁ag": 338,
    "▁kot": 339,
    "▁pun": 340,
    "▁mau": 341,
    "▁memb": 342,
    "▁mahal": 343,
    "▁satu": 344,
    "▁samp": 345,
    "▁lum": 346,
    "▁v": 347,
    "▁lain": 348,
    "tu": 349,
    "uarga": 350,
    "▁tet": 351,
    "▁mel": 352,
    "▁ser": 353,
    "unjung": 354,
    "ian": 355,
    "▁seb": 356,
    "ow": 357,
    "ic": 358,
    "▁peng": 359,
    "▁lumayan": 360,
    "cok": 361,
    "ika": 362,
    "▁par": 363,
    "▁pesan": 364,
    "co": 365,
    "▁lok": 366,
    "ub": 367,
    "ata": 368,
    "od": 369,
    "▁minum": 370,
    "ukan": 371,
    "▁sed": 372,
    "ikm": 373,
    "▁biasa": 374,
    "▁hanya": 375,
    "▁dib": 376,
    "▁har": 377,
    "▁pilihan": 378,
    "▁samb": 379,
    "▁cocok": 380,
    "▁keluarga": 381,
    "ingin": 382,
    "▁kur": 383,
    "▁kec": 384,
    "▁saat": 385,
    "▁kota": 386,
    "ip": 387,
    "emb": 388,
    "▁ker": 389,
    "▁memang": 390,
    "▁sampai": 391,
    "▁lokasi": 392,
    "▁hari": 393,
    "▁kh": 394,
    "▁resto": 395,
    "isi": 396,
    "▁teman": 397,
    "ob": 398,
    "enar": 399,
    "▁mi": 400,
    "und": 401,
    "▁dag": 402,
    "anda": 403,
    "aw": 404,
    "▁ket": 405,
    "▁berk": 406,
    "coba": 407,
    "▁terlalu": 408,
    "eak": 409,
    "▁baik": 410,
    "ent": 411,
    "▁masih": 412,
    "elah": 413,
    "▁beb": 414,
    "ju": 415,
    "gu": 416,
    "▁por": 417,
    "▁al": 418,
    "▁dit": 419,
    "▁harus": 420,
    "ec": 421,
    "▁sej": 422,
    "ihat": 423,
    "oleh": 424,
    "▁pada": 425,
    "iri": 426,
    "▁sih": 427,
    "ri": 428,
    "▁salah": 429,
    "lah": 430,
    "00": 431,
    "▁set": 432,
    "▁porsi": 433,
    "eka": 434,
    "av": 435,
    "▁dalam": 436,
    "gai": 437,
    "ulu": 438,
    "ew": 439,
    "▁agak": 440,
    "▁steak": 441,
    "antap": 442,
    "▁kurang": 443,
    "▁bes": 444,
    "▁ap": 445,
    "umah": 446,
    "▁ar": 447,
    "▁ok": 448,
    "▁kaf": 449,
    "▁sund": 450,
    "eri": 451,
    "▁tetapi": 452,
    "epat": 453,
    "▁semua": 454,
    "▁sunda": 455,
    "▁akan": 456,
    "ones": 457,
    "▁terj": 458,
    "▁selalu": 459,
    "▁minuman": 460,
    "omend": 461,
    "urah": 462,
    "▁anda": 463,
    "▁indones": 464,
    "bagai": 465,
    "▁seh": 466,
    "ekomend": 467,
    "▁khas": 468,
    "aran": 469,
    "aling": 470,
    "▁anak": 471,
    "▁beg": 472,
    "▁besar": 473,
    "▁jam": 474,
    "▁kali": 475,
    "▁seg": 476,
    "▁menj": 477,
    "▁murah": 478,
    "▁ters": 479,
    "▁kafe": 480,
    "▁rumah": 481,
    "▁dapat": 482,
    "▁is": 483,
    "▁luar": 484,
    "▁da": 485,
    "so": 486,
    "▁indonesia": 487,
    "rat": 488,
    "angg": 489,
    "oh": 490,
    "enang": 491,
    "ikmati": 492,
    "▁masakan": 493,
    "▁tahu": 494,
    "ambah": 495,
    "angkau": 496,
    "ingga": 497,
    "▁wak": 498,
    "▁bersama": 499,
    "▁nam": 500,
    "▁keb": 501,
    "▁ses": 502,
    "▁lama": 503,
    "orit": 504,
    "▁namun": 505,
    "anj": 506,
    "arkan": 507,
    "arang": 508,
    "▁fav": 509,
    "▁paling": 510,
    "erapa": 511,
    "▁waktu": 512,
    "▁oke": 513,
    "ingg": 514,
    "▁ramah": 515,
    "▁ped": 516,
    "kir": 517,
    "▁tr": 518,
    "▁beberapa": 519,
    "▁bat": 520,
    "▁ramai": 521,
    "▁dip": 522,
    "▁bakso": 523,
    "▁pert": 524,
    "antai": 525,
    "▁favorit": 526,
    "pun": 527,
    "▁ud": 528,
    "etak": 529,
    "▁ingin": 530,
    "itas": 531,
    "aya": 532,
    "▁dulu": 533,
    "▁baru": 534,
    "▁sana": 535,
    "umb": 536,
    "▁deh": 537,
    "▁menikmati": 538,
    "uran": 539,
    "▁kon": 540,
    "▁mantap": 541,
    "uan": 542,
    "▁jangan": 543,
    "▁mac": 544,
    "nah": 545,
    "▁terjangkau": 546,
    "re": 547,
    "▁bagi": 548,
    "▁kes": 549,
    "▁bakar": 550,
    "▁siang": 551,
    "ea": 552,
    "ra": 553,
    "▁kep": 554,
    "▁coba": 555,
    "▁kem": 556,
    "▁ch": 557,
    "▁dek": 558,
    "▁me": 559,
    "▁apa": 560,
    "▁mak": 561,
    "▁atas": 562,
    "▁dik": 563,
    "▁daging": 564,
    "▁begitu": 565,
    "▁cum": 566,
    "▁membuat": 567,
    "▁mend": 568,
    "▁sambal": 569,
    "ikin": 570,
    "hir": 571,
    "▁jok": 572,
    "▁mus": 573,
    "▁sp": 574,
    "▁3": 575,
    "angs": 576,
    "aman": 577,
    "▁man": 578,
    "▁jika": 579,
    "▁bikin": 580,
    "▁masuk": 581,
    "▁20": 582,
    "cara": 583,
    "▁ken": 584,
    "▁setelah": 585,
    "▁luas": 586,
    "▁oleh": 587,
    "▁parkir": 588,
    "oto": 589,
    "ungk": 590,
    "▁hot": 591,
    "▁aku": 592,
    "▁jokow": 593,
    "▁cepat": 594,
    "▁seti": 595,
    "auh": 596,
    "ewa": 597,
    "▁pad": 598,
    "▁memesan": 599,
    "▁th": 600,
    "▁kecil": 601,
    "▁jokowi": 602,
    "engk": 603,
    "ampir": 604,
    "le": 605,
    "atif": 606,
    "edia": 607,
    "▁mereka": 608,
    "unggu": 609,
    "▁berb": 610,
    "▁pedas": 611,
    "▁bah": 612,
    "apan": 613,
    "▁pakai": 614,
    "▁stand": 615,
    "▁pasti": 616,
    "▁terk": 617,
    "▁kop": 618,
    "▁selain": 619,
    "▁kas": 620,
    "agor": 621,
    "▁war": 622,
    "▁so": 623,
    "▁pernah": 624,
    "▁cuma": 625,
    "▁batagor": 626,
    "▁mencoba": 627,
    "▁sehingga": 628,
    "▁mul": 629,
    "▁z": 630,
    "urut": 631,
    "ibu": 632,
    "▁standar": 633,
    "sa": 634,
    "▁mar": 635,
    "▁sesu": 636,
    "▁unik": 637,
    "▁tahun": 638,
    "era": 639,
    "▁rekomend": 640,
    "▁ant": 641,
    "▁menc": 642,
    "edi": 643,
    "ongk": 644,
    "▁menjadi": 645,
    "nyata": 646,
    "▁menurut": 647,
    "▁sesuai": 648,
    "▁pertama": 649,
    "yar": 650,
    "▁sus": 651,
    "▁kopi": 652,
    "▁ternyata": 653,
    "▁beli": 654,
    "uas": 655,
    "eda": 656,
    "ump": 657,
    "▁bukan": 658,
    "▁benar": 659,
    "▁wal": 660,
    "ima": 661,
    "▁sekarang": 662,
    "▁dekat": 663,
    "▁rom": 664,
    "arik": 665,
    "▁kamp": 666,
    "▁ikan": 667,
    "▁sep": 668,
    "akar": 669,
    "uduk": 670,
    "ajikan": 671,
    "iz": 672,
    "▁mal": 673,
    "▁segar": 674,
    "▁tak": 675,
    "▁berada": 676,
    "▁tel": 677,
    "▁disajikan": 678,
    "▁indah": 679,
    "▁le": 680,
    "utama": 681,
    "▁kul": 682,
    "▁dem": 683,
    "▁rekomendasi": 684,
    "umbu": 685,
    "▁akhir": 686,
    "▁melihat": 687,
    "▁sate": 688,
    "engah": 689,
    "▁lainnya": 690,
    "▁hotel": 691,
    "ulan": 692,
    "▁dicoba": 693,
    "endiri": 694,
    "▁jauh": 695,
    "angsung": 696,
    "iki": 697,
    "▁duduk": 698,
    "▁sejuk": 699,
    "ue": 700,
    "ila": 701,
    "ter": 702,
    "▁vari": 703,
    "agam": 704,
    "▁langsung": 705,
    "▁pul": 706,
    "ungkin": 707,
    "ediakan": 708,
    "▁201": 709,
    "▁ketika": 710,
    "og": 711,
    "▁meja": 712,
    "▁gur": 713,
    "▁mu": 714,
    "▁the": 715,
    "▁lemb": 716,
    "elas": 717,
    "itar": 718,
    "▁berbagai": 719,
    "alagi": 720,
    "▁apalagi": 721,
    "mas": 722,
    "▁bumbu": 723,
    "▁terletak": 724,
    "▁mungkin": 725,
    "ikit": 726,
    "▁es": 727,
    "▁li": 728,
    "yaj": 729,
    "▁romant": 730,
    "ilang": 731,
    "▁sayang": 732,
    "▁walau": 733,
    "▁kok": 734,
    "alitas": 735,
    "inta": 736,
    "▁dir": 737,
    "▁sedikit": 738,
    "▁terus": 739,
    "utan": 740,
    "za": 741,
    "▁ru": 742,
    "▁kons": 743,
    "imp": 744,
    "▁romantis": 745,
    "▁tersedia": 746,
    "▁terb": 747,
    "wal": 748,
    "▁pan": 749,
    "akarta": 750,
    "▁pengunjung": 751,
    "▁lalu": 752,
    "▁kom": 753,
    "rong": 754,
    "▁sendiri": 755,
    "enal": 756,
    "▁macam": 757,
    "▁menunggu": 758,
    "upa": 759,
    "▁sedang": 760,
    "atan": 761,
    "ongkrong": 762,
    "▁belum": 763,
    "▁o": 764,
    "▁udara": 765,
    "▁bersih": 766,
    "▁barat": 767,
    "▁terd": 768,
    "▁manis": 769,
    "▁dago": 770,
    "li": 771,
    "ind": 772,
    "▁menarik": 773,
    "anding": 774,
    "ayak": 775,
    "onal": 776,
    "▁dia": 777,
    "▁tetap": 778,
    "▁i": 779,
    "▁mulai": 780,
    "▁ribu": 781,
    "▁kr": 782,
    "▁beragam": 783,
    "erah": 784,
    "ie": 785,
    "▁nongkrong": 786,
    "▁area": 787,
    "▁des": 788,
    "▁sambil": 789,
    "▁daun": 790,
    "▁kampung": 791,
    "air": 792,
    "▁pl": 793,
    "▁mengh": 794,
    "upakan": 795,
    "okok": 796,
    "oti": 797,
    "uhan": 798,
    "ina": 799,
    "▁dingin": 800,
    "▁y": 801,
    "▁dij": 802,
    "▁kasih": 803,
    "▁sebagai": 804,
    "▁setiap": 805,
    "abis": 806,
    "▁ti": 807,
    "▁say": 808,
    "▁mengg": 809,
    "ahan": 810,
    "▁hid": 811,
    "abi": 812,
    "ore": 813,
    "baik": 814,
    "enis": 815,
    "▁jakarta": 816,
    "egis": 817,
    "iner": 818,
    "teri": 819,
    "ingan": 820,
    "▁sekitar": 821,
    "▁berkunjung": 822,
    "▁ng": 823,
    "▁secara": 824,
    "▁tingg": 825,
    "▁daerah": 826,
    "iliki": 827,
    "ood": 828,
    "▁memilih": 829,
    "▁nama": 830,
    "asikan": 831,
    "▁bub": 832,
    "▁cab": 833,
    "unjungi": 834,
    "▁ditambah": 835,
    "▁bu": 836,
    "▁warung": 837,
    "▁dim": 838,
    "▁hal": 839,
    "▁terkenal": 840,
    "raga": 841,
    "ch": 842,
    "▁air": 843,
    "inya": 844,
    "▁merupakan": 845,
    "▁sering": 846,
    "▁alam": 847,
    "int": 848,
    "▁mampir": 849,
    "▁dah": 850,
    "▁strat": 851,
    "▁4": 852,
    "▁pol": 853,
    "ikmat": 854,
    "▁mes": 855,
    "▁ga": 856,
    "▁serta": 857,
    "zat": 858,
    "▁terasa": 859,
    "▁pres": 860,
    "▁memiliki": 861,
    "▁lid": 862,
    "▁berm": 863,
    "▁lengk": 864,
    "▁braga": 865,
    "▁lezat": 866,
    "▁strategis": 867,
    "▁dil": 868,
    "awa": 869,
    "▁5": 870,
    "▁mana": 871,
    "▁kecewa": 872,
    "▁neg": 873,
    "▁penuh": 874,
    "▁marah": 875,
    "▁tan": 876,
    "ala": 877,
    "▁tol": 878,
    "▁piz": 879,
    "▁um": 880,
    "lu": 881,
    "▁waj": 882,
    "▁zaman": 883,
    "▁kuah": 884,
    "▁bakm": 885,
    "▁roti": 886,
    "▁kamu": 887,
    "▁kualitas": 888,
    "▁pizza": 889,
    "oy": 890,
    "▁re": 891,
    "▁ked": 892,
    "▁kant": 893,
    "anti": 894,
    "esi": 895,
    "▁us": 896,
    "enangkan": 897,
    "▁dep": 898,
    "umpul": 899,
    "▁bur": 900,
    "▁u": 901,
    "▁buka": 902,
    "▁konsep": 903,
    "asil": 904,
    "▁e": 905,
    "st": 906,
    "gi": 907,
    "▁kuliner": 908,
    "▁ot": 909,
    "teman": 910,
    "▁nikmat": 911,
    "▁presid": 912,
    "▁demok": 913,
    "ampu": 914,
    "▁lantai": 915,
    "engg": 916,
    "▁berl": 917,
    "ve": 918,
    "▁walaupun": 919,
    "tai": 920,
    "benar": 921,
    "▁presiden": 922,
    "▁saung": 923,
    "▁top": 924,
    "▁mencari": 925,
    "yat": 926,
    "▁rel": 927,
    "▁sebel": 928,
    "▁terutama": 929,
    "▁pasangan": 930,
    "▁pil": 931,
    "▁tim": 932,
    "▁ul": 933,
    "000": 934,
    "▁awal": 935,
    "▁sejak": 936,
    "tim": 937,
    "▁sebelum": 938,
    "ewakan": 939,
    "arin": 940,
    "▁menyenangkan": 941,
    "▁kalian": 942,
    "▁mengec": 943,
    "▁gue": 944,
    "▁perlu": 945,
    "ki": 946,
    "▁lengkap": 947,
    "ont": 948,
    "▁bert": 949,
    "▁menyes": 950,
    "pr": 951,
    "▁str": 952,
    "▁sen": 953,
    "ist": 954,
    "ihan": 955,
    "▁kak": 956,
    "▁teh": 957,
    "▁kan": 958,
    "▁terima": 959,
    "unakan": 960,
    "ni": 961,
    "▁lidah": 962,
    "utup": 963,
    "pa": 964,
    "▁tengah": 965,
    "▁akhirnya": 966,
    "osan": 967,
    "▁punya": 968,
    "▁mudah": 969,
    "▁mengecewakan": 970,
    "▁paket": 971,
    "osat": 972,
    "wah": 973,
    "any": 974,
    "▁lo": 975,
    "▁sore": 976,
    "▁dita": 977,
    "▁malah": 978,
    "▁indosat": 979,
    "inggu": 980,
    "▁rak": 981,
    "▁menyediakan": 982,
    "▁depan": 983,
    "mal": 984,
    "▁bun": 985,
    "▁dig": 986,
    "▁kemb": 987,
    "▁emp": 988,
    "ekomendasikan": 989,
    "▁bal": 990,
    "ca": 991,
    "iring": 992,
    "▁keren": 993,
    "▁terdapat": 994,
    "▁jenis": 995,
    "▁10": 996,
    "ungg": 997,
    "▁partai": 998,
    "▁pe": 999,
    "ug": 1000,
    "▁menyesal": 1001,
    "ukung": 1002,
    "▁keju": 1003,
    "▁gurih": 1004,
    "▁sal": 1005,
    "▁menyaj": 1006,
    "▁menyajikan": 1007,
    "▁pagi": 1008,
    "▁kue": 1009,
    "▁saj": 1010,
    "▁demokrat": 1011,
    "▁senang": 1012,
    "▁kemarin": 1013,
    "▁lupa": 1014,
    "ingk": 1015,
    "▁saus": 1016,
    "▁bubur": 1017,
    "▁res": 1018,
    "jalan": 1019,
    "pl": 1020,
    "▁babi": 1021,
    "▁para": 1022,
    "ahal": 1023,
    "▁ditaw": 1024,
    "▁foto": 1025,
    "▁berd": 1026,
    "▁jawa": 1027,
    "▁wajib": 1028,
    "ci": 1029,
    "▁lembang": 1030,
    "▁gr": 1031,
    "▁minggu": 1032,
    "▁sh": 1033,
    "▁susah": 1034,
    "▁ah": 1035,
    "▁ditawarkan": 1036,
    "lam": 1037,
    "▁bet": 1038,
    "ilan": 1039,
    "▁kamb": 1040,
    "▁soal": 1041,
    "▁br": 1042,
    "ij": 1043,
    "▁lap": 1044,
    "▁rakyat": 1045,
    "wan": 1046,
    "der": 1047,
    "▁kol": 1048,
    "▁but": 1049,
    "▁ger": 1050,
    "ebut": 1051,
    "▁trad": 1052,
    "▁pemb": 1053,
    "unan": 1054,
    "aha": 1055,
    "▁pokok": 1056,
    "▁tok": 1057,
    "▁sop": 1058,
    "▁kayak": 1059,
    "▁am": 1060,
    "jual": 1061,
    "na": 1062,
    "▁kambing": 1063,
    "▁hidangan": 1064,
    "▁pesanan": 1065,
    "pi": 1066,
    "iting": 1067,
    "▁berbeda": 1068,
    "▁it": 1069,
    "erikan": 1070,
    "▁nih": 1071,
    "▁sur": 1072,
    "owo": 1073,
    "▁lib": 1074,
    "ungan": 1075,
    "▁be": 1076,
    "lo": 1077,
    "anak": 1078,
    "▁kac": 1079,
    "▁kembali": 1080,
    "▁boleh": 1081,
    "▁direkomendasikan": 1082,
    "iah": 1083,
    "▁dua": 1084,
    "ver": 1085,
    "▁asik": 1086,
    "uj": 1087,
    "▁islam": 1088,
    "if": 1089,
    "▁ala": 1090,
    "▁pus": 1091,
    "▁padahal": 1092,
    "▁mie": 1093,
    "▁kata": 1094,
    "ice": 1095,
    "▁maka": 1096,
    "▁asin": 1097,
    "▁dih": 1098,
    "▁bosan": 1099,
    "omie": 1100,
    "▁mini": 1101,
    "▁tambah": 1102,
    "▁terbaik": 1103,
    "▁selera": 1104,
    "orang": 1105,
    "▁empuk": 1106,
    "ota": 1107,
    "terior": 1108,
    "▁barang": 1109,
    "▁memba": 1110,
    "▁hampir": 1111,
    "ern": 1112,
    "▁tradisi": 1113,
    "▁agama": 1114,
    "ov": 1115,
    "▁heh": 1116,
    "▁habis": 1117,
    "▁temp": 1118,
    "▁uk": 1119,
    "▁berv": 1120,
    "tern": 1121,
    "imana": 1122,
    "isata": 1123,
    "▁semu": 1124,
    "▁to": 1125,
    "▁bervari": 1126,
    "uaskan": 1127,
    "masuk": 1128,
    "▁maupun": 1129,
    "▁panas": 1130,
    "▁cabang": 1131,
    "▁tradisional": 1132,
    "▁buk": 1133,
    "▁bayar": 1134,
    "ans": 1135,
    "▁hingga": 1136,
    "▁kepiting": 1137,
    "▁letak": 1138,
    "▁dic": 1139,
    "uda": 1140,
    "▁terlihat": 1141,
    "▁semuanya": 1142,
    "▁isi": 1143,
    "▁kad": 1144,
    "emukan": 1145,
    "▁otak": 1146,
    "ender": 1147,
    "▁sebenar": 1148,
    "▁interior": 1149,
    "▁main": 1150,
    "▁spesi": 1151,
    "ikut": 1152,
    "▁pot": 1153,
    "▁macet": 1154,
    "▁kerja": 1155,
    "▁sebenarnya": 1156,
    "apak": 1157,
    "wet": 1158,
    "▁amp": 1159,
    "▁puas": 1160,
    "ick": 1161,
    "ig": 1162,
    "▁ny": 1163,
    "bak": 1164,
    "▁pin": 1165,
    "▁beda": 1166,
    "▁lampu": 1167,
    "▁umum": 1168,
    "ohon": 1169,
    "tr": 1170,
    "▁tanpa": 1171,
    "▁udang": 1172,
    "▁tepat": 1173,
    "timewa": 1174,
    "▁termasuk": 1175,
    "▁did": 1176,
    "▁bebek": 1177,
    "asis": 1178,
    "▁strob": 1179,
    "▁na": 1180,
    "oduk": 1181,
    "▁sar": 1182,
    "▁ged": 1183,
    "adikan": 1184,
    "▁spesial": 1185,
    "▁semp": 1186,
    "▁musik": 1187,
    "▁biasanya": 1188,
    "acam": 1189,
    "▁memuaskan": 1190,
    "obr": 1191,
    "▁ist": 1192,
    "▁prab": 1193,
    "▁prabowo": 1194,
    "▁bakmi": 1195,
    "angi": 1196,
    "anyakan": 1197,
    "▁kesel": 1198,
    "▁pend": 1199,
    "▁antre": 1200,
    "▁perm": 1201,
    "▁aneka": 1202,
    "▁suk": 1203,
    "▁ek": 1204,
    "▁relatif": 1205,
    "▁hati": 1206,
    "▁cari": 1207,
    "▁cina": 1208,
    "▁pasta": 1209,
    "▁baga": 1210,
    "▁mendapat": 1211,
    "▁stroberi": 1212,
    "ikir": 1213,
    "oc": 1214,
    "▁keselur": 1215,
    "▁istimewa": 1216,
    "▁variasi": 1217,
    "▁santai": 1218,
    "▁mengunjungi": 1219,
    "▁put": 1220,
    "▁fpi": 1221,
    "▁diper": 1222,
    "abat": 1223,
    "▁keseluruhan": 1224,
    "▁gar": 1225,
    "te": 1226,
    "▁ukuran": 1227,
    "▁makin": 1228,
    "ambil": 1229,
    "▁order": 1230,
    "▁kor": 1231,
    "one": 1232,
    "anggan": 1233,
    "▁naik": 1234,
    "▁and": 1235,
    "▁pusat": 1236,
    "anja": 1237,
    "▁tinggi": 1238,
    "▁bervariasi": 1239,
    "▁menggunakan": 1240,
    "▁rp": 1241,
    "▁mengin": 1242,
    "▁jus": 1243,
    "ame": 1244,
    "▁pengg": 1245,
    "▁bahkan": 1246,
    "▁ruangan": 1247,
    "hi": 1248,
    "ef": 1249,
    "ongan": 1250,
    "▁lanj": 1251,
    "▁dibanding": 1252,
    "▁memp": 1253,
    "entang": 1254,
    "▁kenapa": 1255,
    "▁kek": 1256,
    "▁live": 1257,
    "▁produk": 1258,
    "▁sapi": 1259,
    "itik": 1260,
    "▁menuju": 1261,
    "ma": 1262,
    "▁bulan": 1263,
    "anjang": 1264,
    "▁bas": 1265,
    "▁piring": 1266,
    "unya": 1267,
    "▁mob": 1268,
    "▁mobil": 1269,
    "▁bagaimana": 1270,
    "obrol": 1271,
    "isan": 1272,
    "▁desain": 1273,
    "▁wisata": 1274,
    "▁ri": 1275,
    "▁anj": 1276,
    "▁negara": 1277,
    "ses": 1278,
    "▁yaitu": 1279,
    "▁utama": 1280,
    "▁sul": 1281,
    "▁trans": 1282,
    "▁sab": 1283,
    "▁muda": 1284,
    "▁tert": 1285,
    "akukan": 1286,
    "ley": 1287,
    "▁la": 1288,
    "▁juara": 1289,
    "tar": 1290,
    "▁pis": 1291,
    "▁kompl": 1292,
    "▁super": 1293,
    "▁acara": 1294,
    "▁yam": 1295,
    "ayu": 1296,
    "jak": 1297,
    "elek": 1298,
    "foto": 1299,
    "anc": 1300,
    "▁sarapan": 1301,
    "▁indomie": 1302,
    "▁asli": 1303,
    "▁pec": 1304,
    "ine": 1305,
    "agihan": 1306,
    "▁bamb": 1307,
    "▁bareng": 1308,
    "▁pat": 1309,
    "▁berh": 1310,
    "▁biar": 1311,
    "ies": 1312,
    "▁kotor": 1313,
    "▁mahasis": 1314,
    "▁ringan": 1315,
    "▁menambah": 1316,
    "asar": 1317,
    "▁lanjutan": 1318,
    "▁disediakan": 1319,
    "▁dahulu": 1320,
    "▁kau": 1321,
    "▁kaw": 1322,
    "ewat": 1323,
    "▁lem": 1324,
    "▁sup": 1325,
    "angkan": 1326,
    "▁penyaj": 1327,
    "▁peny": 1328,
    "▁bek": 1329,
    "▁sayur": 1330,
    "uar": 1331,
    "▁kursi": 1332,
    "loin": 1333,
    "▁gub": 1334,
    "▁chick": 1335,
    "▁chicken": 1336,
    "▁pulang": 1337,
    "▁ac": 1338,
    "eli": 1339,
    "▁bambu": 1340,
    "▁on": 1341,
    "impin": 1342,
    "▁prib": 1343,
    "uri": 1344,
    "▁mod": 1345,
    "▁penyajian": 1346,
    "▁mata": 1347,
    "▁mahasiswa": 1348,
    "adar": 1349,
    "▁pisang": 1350,
    "aja": 1351,
    "▁menginap": 1352,
    "▁jelas": 1353,
    "▁kebanyakan": 1354,
    "▁sekel": 1355,
    "etulan": 1356,
    "ff": 1357,
    "kip": 1358,
    "▁bagian": 1359,
    "▁din": 1360,
    "ers": 1361,
    "ate": 1362,
    "▁pers": 1363,
    "▁go": 1364,
    "▁kebetulan": 1365,
    "▁ben": 1366,
    "▁bawa": 1367,
    "▁jat": 1368,
    "▁hangat": 1369,
    "▁bawah": 1370,
    "▁liburan": 1371,
    "▁meskip": 1372,
    "usus": 1373,
    "▁sulit": 1374,
    "▁sta": 1375,
    "▁anjing": 1376,
    "▁cara": 1377,
    "▁meskipun": 1378,
    "▁kantong": 1379,
    "lok": 1380,
    "▁huj": 1381,
    "▁dong": 1382,
    "▁tersebut": 1383,
    "▁khusus": 1384,
    "▁anies": 1385,
    "▁pd": 1386,
    "ungguh": 1387,
    "▁hit": 1388,
    "▁plus": 1389,
    "▁terp": 1390,
    "▁minimal": 1391,
    "▁menaw": 1392,
    "▁kalah": 1393,
    "ese": 1394,
    "▁2018": 1395,
    "▁bila": 1396,
    "antu": 1397,
    "inggir": 1398,
    "amu": 1399,
    "▁out": 1400,
    "▁padang": 1401,
    "ampur": 1402,
    "▁sepert": 1403,
    "▁sepertinya": 1404,
    "▁siap": 1405,
    "▁hujan": 1406,
    "▁tangg": 1407,
    "▁lal": 1408,
    "▁diri": 1409,
    "▁dasar": 1410,
    "▁pet": 1411,
    "▁ketagihan": 1412,
    "▁merasa": 1413,
    "akin": 1414,
    "itan": 1415,
    "▁9": 1416,
    "▁ric": 1417,
    "▁suara": 1418,
    "▁bahwa": 1419,
    "ill": 1420,
    "▁pergi": 1421,
    "▁30": 1422,
    "▁gurame": 1423,
    "▁minta": 1424,
    "▁rata": 1425,
    "▁7": 1426,
    "emar": 1427,
    "▁food": 1428,
    "th": 1429,
    "▁ab": 1430,
    "▁variatif": 1431,
    "▁tinggal": 1432,
    "erh": 1433,
    "▁bapak": 1434,
    "▁tea": 1435,
    "▁pinggir": 1436,
    "▁jelek": 1437,
    "▁semakin": 1438,
    "▁cita": 1439,
    "uc": 1440,
    "aftar": 1441,
    "ami": 1442,
    "▁politik": 1443,
    "▁sungguh": 1444,
    "▁gua": 1445,
    "▁6": 1446,
    "▁liwet": 1447,
    "pada": 1448,
    "alaman": 1449,
    "▁pelanggan": 1450,
    "akai": 1451,
    "▁terg": 1452,
    "▁cap": 1453,
    "▁toko": 1454,
    "▁cinta": 1455,
    "▁menit": 1456,
    "▁asri": 1457,
    "ijau": 1458,
    "▁ramen": 1459,
    "▁rib": 1460,
    "▁engg": 1461,
    "▁8": 1462,
    "▁jep": 1463,
    "▁lihat": 1464,
    "uah": 1465,
    "▁uang": 1466,
    "asaran": 1467,
    "▁kaki": 1468,
    "ela": 1469,
    "▁do": 1470,
    "▁iga": 1471,
    "yangkan": 1472,
    "▁dikunjungi": 1473,
    "ast": 1474,
    "▁inf": 1475,
    "▁berasa": 1476,
    "ani": 1477,
    "ingat": 1478,
    "▁kesal": 1479,
    "▁sempit": 1480,
    "▁tenang": 1481,
    "▁jepang": 1482,
    "▁bilang": 1483,
    "▁18": 1484,
    "▁pilk": 1485,
    "▁pilkada": 1486,
    "▁sun": 1487,
    "▁hijau": 1488,
    "▁cek": 1489,
    "afood": 1490,
    "▁nom": 1491,
    "eran": 1492,
    "▁tambahan": 1493,
    "▁agar": 1494,
    "antik": 1495,
    "uansa": 1496,
    "▁kacang": 1497,
    "bayar": 1498,
    "▁daripada": 1499,
    "▁krim": 1500,
    "▁seafood": 1501,
    "▁daftar": 1502,
    "▁antara": 1503,
    "ram": 1504,
    "▁ko": 1505,
    "▁kenyang": 1506,
    "▁layan": 1507,
    "▁layak": 1508,
    "▁begini": 1509,
    "fa": 1510,
    "▁mendapatkan": 1511,
    "▁tiap": 1512,
    "▁gubern": 1513,
    "▁ulang": 1514,
    "▁tua": 1515,
    "▁buah": 1516,
    "▁penasaran": 1517,
    "ilm": 1518,
    "enc": 1519,
    "las": 1520,
    "▁bunt": 1521,
    "agu": 1522,
    "▁bermain": 1523,
    "uasa": 1524,
    "▁gubernur": 1525,
    "▁dus": 1526,
    "▁id": 1527,
    "▁pekan": 1528,
    "ingkat": 1529,
    "▁sekeluarga": 1530,
    "▁berkumpul": 1531,
    "▁mil": 1532,
    "▁layanan": 1533,
    "▁pdip": 1534,
    "▁tolong": 1535,
    "▁wah": 1536,
    "▁masa": 1537,
    "▁15": 1538,
    "▁belanja": 1539,
    "ks": 1540,
    "▁pemer": 1541,
    "▁pep": 1542,
    "ej": 1543,
    "▁bing": 1544,
    "udi": 1545,
    "yik": 1546,
    "alkan": 1547,
    "▁pant": 1548,
    "by": 1549,
    "una": 1550,
    "▁belak": 1551,
    "▁tamu": 1552,
    "▁pula": 1553,
    "▁enggak": 1554,
    "▁sempat": 1555,
    "▁cantik": 1556,
    "▁tip": 1557,
    "▁pangs": 1558,
    "ome": 1559,
    "▁selama": 1560,
    "▁mbak": 1561,
    "▁hasil": 1562,
    "▁buntut": 1563,
    "ahabat": 1564,
    "▁pasar": 1565,
    "kom": 1566,
    "anan": 1567,
    "ell": 1568,
    "▁masalah": 1569,
    "▁pos": 1570,
    "ger": 1571,
    "▁ol": 1572,
    "▁pangsit": 1573,
    "ro": 1574,
    "lat": 1575,
    "erhana": 1576,
    "▁bersantai": 1577,
    "ajak": 1578,
    "ert": 1579,
    "ond": 1580,
    "urt": 1581,
    "▁perut": 1582,
    "▁eks": 1583,
    "▁ahok": 1584,
    "▁kepada": 1585,
    "▁lewat": 1586,
    "urus": 1587,
    "▁kadang": 1588,
    "▁seng": 1589,
    "▁ibu": 1590,
    "▁kedai": 1591,
    "gh": 1592,
    "▁jar": 1593,
    "▁penc": 1594,
    "▁sebanding": 1595,
    "▁diberikan": 1596,
    "▁panjang": 1597,
    "edan": 1598,
    "▁er": 1599,
    "omo": 1600,
    "▁menawarkan": 1601,
    "▁putih": 1602,
    "▁angg": 1603,
    "▁terh": 1604,
    "▁membawa": 1605,
    "▁berp": 1606,
    "▁x": 1607,
    "angkung": 1608,
    "amin": 1609,
    "▁lembut": 1610,
    "orm": 1611,
    "ake": 1612,
    "▁hehe": 1613,
    "▁cit": 1614,
    "▁teb": 1615,
    "▁pemerint": 1616,
    "▁tunggu": 1617,
    "▁grat": 1618,
    "▁intern": 1619,
    "fc": 1620,
    "▁cok": 1621,
    "iling": 1622,
    "lik": 1623,
    "▁parah": 1624,
    "▁gal": 1625,
    "▁tiba": 1626,
    "▁telur": 1627,
    "▁telkom": 1628,
    "▁sak": 1629,
    "▁rica": 1630,
    "tung": 1631,
    "▁penutup": 1632,
    "▁dusun": 1633,
    "▁kantor": 1634,
    "▁mengen": 1635,
    "adan": 1636,
    "▁sederhana": 1637,
    "▁tur": 1638,
    "▁bakal": 1639,
    "ohong": 1640,
    "▁dl": 1641,
    "▁dll": 1642,
    "sel": 1643,
    "ayah": 1644,
    "res": 1645,
    "▁menemukan": 1646,
    "omb": 1647,
    "akhir": 1648,
    "▁arah": 1649,
    "▁sebuah": 1650,
    "▁sajian": 1651,
    "▁ci": 1652,
    "▁dibuat": 1653,
    "▁dpr": 1654,
    "▁keluar": 1655,
    "▁perjalan": 1656,
    "▁kumpul": 1657,
    "▁betah": 1658,
    "ilah": 1659,
    "▁kartu": 1660,
    "oga": 1661,
    "▁dibilang": 1662,
    "irim": 1663,
    "ugas": 1664,
    "▁taman": 1665,
    "iran": 1666,
    "entu": 1667,
    "▁kp": 1668,
    "▁pribadi": 1669,
    "▁nanti": 1670,
    "▁wif": 1671,
    "▁bingung": 1672,
    "▁100": 1673,
    "▁berat": 1674,
    "▁merah": 1675,
    "▁jaw": 1676,
    "▁asyik": 1677,
    "▁non": 1678,
    "▁gel": 1679,
    "▁kfc": 1680,
    "▁ik": 1681,
    "▁warga": 1682,
    "▁kangkung": 1683,
    "▁bod": 1684,
    "▁aneh": 1685,
    "▁dekor": 1686,
    "atakan": 1687,
    "▁perc": 1688,
    "▁lapar": 1689,
    "ubah": 1690,
    "pan": 1691,
    "▁pac": 1692,
    "▁penggemar": 1693,
    "▁kos": 1694,
    "▁mand": 1695,
    "▁mati": 1696,
    "▁simp": 1697,
    "▁wifi": 1698,
    "▁beef": 1699,
    "▁tik": 1700,
    "▁gratis": 1701,
    "▁kolam": 1702,
    "umi": 1703,
    "▁belakang": 1704,
    "▁sebaik": 1705,
    "▁perjalanan": 1706,
    "▁staf": 1707,
    "▁val": 1708,
    "▁sum": 1709,
    "arah": 1710,
    "▁ataupun": 1711,
    "▁jawab": 1712,
    "▁sm": 1713,
    "uhkan": 1714,
    "ui": 1715,
    "lain": 1716,
    "ainan": 1717,
    "▁kayu": 1718,
    "ulang": 1719,
    "▁tamp": 1720,
    "▁sepi": 1721,
    "▁dimakan": 1722,
    "▁terakhir": 1723,
    "unj": 1724,
    "▁gul": 1725,
    "▁kap": 1726,
    "amat": 1727,
    "▁bo": 1728,
    "▁karya": 1729,
    "▁sby": 1730,
    "angga": 1731,
    "jek": 1732,
    "erang": 1733,
    "ilai": 1734,
    "vasi": 1735,
    "▁pecinta": 1736,
    "▁bangunan": 1737,
    "▁ren": 1738,
    "▁jaj": 1739,
    "adu": 1740,
    "▁hidup": 1741,
    "arankan": 1742,
    "▁nuansa": 1743,
    "usi": 1744,
    "▁eh": 1745,
    "ayani": 1746,
    "ato": 1747,
    "▁reser": 1748,
    "▁sebaiknya": 1749,
    "▁cr": 1750,
    "▁andalan": 1751,
    "icip": 1752,
    "▁patut": 1753,
    "usia": 1754,
    "ji": 1755,
    "araan": 1756,
    "▁dijadikan": 1757,
    "▁bl": 1758,
    "▁usah": 1759,
    "▁ma": 1760,
    "adap": 1761,
    "onton": 1762,
    "▁bali": 1763,
    "macam": 1764,
    "ings": 1765,
    "cher": 1766,
    "▁coklat": 1767,
    "▁wangi": 1768,
    "▁film": 1769,
    "▁gila": 1770,
    "enuh": 1771,
    "olah": 1772,
    "▁bangk": 1773,
    "oblok": 1774,
    "▁sir": 1775,
    "▁iya": 1776,
    "▁em": 1777,
    "▁yak": 1778,
    "▁jer": 1779,
    "▁jual": 1780,
    "asih": 1781,
    "bel": 1782,
    "▁berubah": 1783,
    "age": 1784,
    "uruh": 1785,
    "uru": 1786,
    "▁pangg": 1787,
    "▁lauk": 1788,
    "▁kemud": 1789,
    "▁kemudian": 1790,
    "▁nomor": 1791,
    "▁siom": 1792,
    "▁semoga": 1793,
    "▁0": 1794,
    "▁lokal": 1795,
    "▁tem": 1796,
    "▁sebelah": 1797,
    "▁ruang": 1798,
    "▁kunjung": 1799,
    "rata": 1800,
    "aur": 1801,
    "ting": 1802,
    "vel": 1803,
    "▁kawasan": 1804,
    "▁memberikan": 1805,
    "▁bol": 1806,
    "▁ro": 1807,
    "atu": 1808,
    "▁sushi": 1809,
    "▁telah": 1810,
    "▁dijangkau": 1811,
    "▁gede": 1812,
    "▁wow": 1813,
    "ee": 1814,
    "▁sekadar": 1815,
    "▁jatuh": 1816,
    "▁fasil": 1817,
    "▁kang": 1818,
    "epon": 1819,
    "▁dijamin": 1820,
    "omp": 1821,
    "▁bank": 1822,
    "▁kpk": 1823,
    "▁menjual": 1824,
    "▁suami": 1825,
    "▁balik": 1826,
    "▁sebelumnya": 1827,
    "▁siomay": 1828,
    "akat": 1829,
    "▁riau": 1830,
    "▁rid": 1831,
    "▁menteri": 1832,
    "▁po": 1833,
    "▁tep": 1834,
    "▁leg": 1835,
    "▁tender": 1836,
    "▁hitam": 1837,
    "ental": 1838,
    "usak": 1839,
    "▁ketua": 1840,
    "▁korup": 1841,
    "opa": 1842,
    "▁suki": 1843,
    "▁mulut": 1844,
    "▁gedung": 1845,
    "yah": 1846,
    "ukai": 1847,
    "▁dipesan": 1848,
    "▁kend": 1849,
    "▁valley": 1850,
    "▁varian": 1851,
    "▁sari": 1852,
    "▁parkiran": 1853,
    "alui": 1854,
    "▁istri": 1855,
    "asakan": 1856,
    "▁serv": 1857,
    "▁en": 1858,
    "▁ambil": 1859,
    "okan": 1860,
    "▁cer": 1861,
    "▁situ": 1862,
    "atas": 1863,
    "▁kedua": 1864,
    "▁keh": 1865,
    "ream": 1866,
    "jaga": 1867,
    "▁bersahabat": 1868,
    "▁eropa": 1869,
    "▁apab": 1870,
    "▁apabila": 1871,
    "oan": 1872,
    "isten": 1873,
    "▁diba": 1874,
    "▁goblok": 1875,
    "▁memas": 1876,
    "inal": 1877,
    "▁fasilitas": 1878,
    "▁sambel": 1879,
    "mon": 1880,
    "▁masak": 1881,
    "▁kunjungan": 1882,
    "emani": 1883,
    "▁pap": 1884,
    "aan": 1885,
    "▁op": 1886,
    "▁level": 1887,
    "▁tanggal": 1888,
    "ili": 1889,
    "▁akses": 1890,
    "agian": 1891,
    "cu": 1892,
    "▁12": 1893,
    "engar": 1894,
    "gaw": 1895,
    "▁mir": 1896,
    "▁pantas": 1897,
    "se": 1898,
    "▁heheh": 1899,
    "▁ut": 1900,
    "▁les": 1901,
    "ehan": 1902,
    "▁sud": 1903,
    "▁campur": 1904,
    "▁bus": 1905,
    "▁ex": 1906,
    "▁siapa": 1907,
    "omi": 1908,
    "mi": 1909,
    "▁tent": 1910,
    "ort": 1911,
    "▁bir": 1912,
    "▁ikut": 1913,
    "cang": 1914,
    "▁sand": 1915,
    "▁berdua": 1916,
    "ail": 1917,
    "▁sawah": 1918,
    "▁sok": 1919,
    "okasi": 1920,
    "▁dekorasi": 1921,
    "▁beliau": 1922,
    "▁mis": 1923,
    "lim": 1924,
    "▁mant": 1925,
    "icipi": 1926,
    "▁kesan": 1927,
    "▁city": 1928,
    "▁promo": 1929,
    "ph": 1930,
    "▁gol": 1931,
    "▁lalapan": 1932,
    "▁pengalaman": 1933,
    "▁kab": 1934,
    "▁ridwan": 1935,
    "▁bau": 1936,
    "ial": 1937,
    "ura": 1938,
    "▁saji": 1939,
    "▁malang": 1940,
    "▁tenderloin": 1941,
    "elang": 1942,
    "▁tek": 1943,
    "▁seorang": 1944,
    "▁not": 1945,
    "▁bern": 1946,
    "▁peak": 1947,
    "▁soto": 1948,
    "anto": 1949,
    "▁gelas": 1950,
    "amai": 1951,
    "▁mengan": 1952,
    "▁cem": 1953,
    "▁setengah": 1954,
    "ualitas": 1955,
    "▁untung": 1956,
    "pon": 1957,
    "▁kamil": 1958,
    "▁asam": 1959,
    "▁loh": 1960,
    "▁melalui": 1961,
    "olong": 1962,
    "▁berupa": 1963,
    "▁cah": 1964,
    "▁asi": 1965,
    "ayo": 1966,
    "wedan": 1967,
    "▁kenya": 1968,
    "ado": 1969,
    "walk": 1970,
    "▁up": 1971,
    "▁bangsa": 1972,
    "oba": 1973,
    "▁tempo": 1974,
    "awan": 1975,
    "▁burger": 1976,
    "▁berkualitas": 1977,
    "▁kun": 1978,
    "hati": 1979,
    "▁mo": 1980,
    "▁setiab": 1981,
    "▁adem": 1982,
    "▁dibandingkan": 1983,
    "▁sengaja": 1984,
    "▁kentang": 1985,
    "▁pikir": 1986,
    "▁sap": 1987,
    "▁halal": 1988,
    "▁sayuran": 1989,
    "jakan": 1990,
    "▁reservasi": 1991,
    "▁restaur": 1992,
    "▁manusia": 1993,
    "▁mew": 1994,
    "▁digoreng": 1995,
    "▁telkomsel": 1996,
    "▁lot": 1997,
    "▁kosong": 1998,
    "▁pki": 1999,
    "▁cal": 2000,
    "▁meski": 2001,
    "▁hand": 2002,
    "▁pemerintah": 2003,
    "▁inst": 2004,
    "uskan": 2005,
    "▁spag": 2006,
    "▁gara": 2007,
    "▁mun": 2008,
    "▁membeli": 2009,
    "▁jum": 2010,
    "▁menang": 2011,
    "▁terjun": 2012,
    "▁panc": 2013,
    "▁mon": 2014,
    "▁dijual": 2015,
    "▁bersantap": 2016,
    "▁kond": 2017,
    "▁hehehe": 2018,
    "imb": 2019,
    "erja": 2020,
    "▁lesehan": 2021,
    "▁soup": 2022,
    "▁telepon": 2023,
    "▁hutan": 2024,
    "▁2019": 2025,
    "tur": 2026,
    "▁ir": 2027,
    "▁nov": 2028,
    "▁anggota": 2029,
    "▁ent": 2030,
    "▁tempe": 2031,
    "▁car": 2032,
    "▁jajanan": 2033,
    "ping": 2034,
    "▁terkesan": 2035,
    "▁raya": 2036,
    "▁doang": 2037,
    "ambar": 2038,
    "▁tu": 2039,
    "▁sedap": 2040,
    "▁tom": 2041,
    "▁tiket": 2042,
    "abu": 2043,
    "kri": 2044,
    "ayakan": 2045,
    "▁gaya": 2046,
    "▁gojek": 2047,
    "▁mending": 2048,
    "▁takut": 2049,
    "askan": 2050,
    "usan": 2051,
    "▁baswedan": 2052,
    "▁sungai": 2053,
    "▁nari": 2054,
    "▁naripan": 2055,
    "▁amat": 2056,
    "tor": 2057,
    "▁du": 2058,
    "▁payah": 2059,
    "kon": 2060,
    "▁menyukai": 2061,
    "nis": 2062,
    "empatan": 2063,
    "▁gerind": 2064,
    "▁tentunya": 2065,
    "▁kendaraan": 2066,
    "▁sam": 2067,
    "▁tadi": 2068,
    "▁alasan": 2069,
    "▁merokok": 2070,
    "▁buruk": 2071,
    "mp": 2072,
    "▁bant": 2073,
    "gub": 2074,
    "▁salmon": 2075,
    "▁dikasih": 2076,
    "manan": 2077,
    "▁meres": 2078,
    "▁kering": 2079,
    "▁ki": 2080,
    "▁warna": 2081,
    "▁dukung": 2082,
    "▁fac": 2083,
    "▁kondisi": 2084,
    "baya": 2085,
    "of": 2086,
    "▁saos": 2087,
    "▁lucu": 2088,
    "apkan": 2089,
    "ajar": 2090,
    "▁kuliah": 2091,
    "juan": 2092,
    "men": 2093,
    "▁hah": 2094,
    "ne": 2095,
    "▁tergolong": 2096,
    "▁sens": 2097,
    "▁selamat": 2098,
    "ebus": 2099,
    "▁berlokasi": 2100,
    "▁angk": 2101,
    "▁keras": 2102,
    "▁pintu": 2103,
    "emuan": 2104,
    "inyal": 2105,
    "yarakat": 2106,
    "▁no": 2107,
    "▁sk": 2108,
    "▁kej": 2109,
    "mm": 2110,
    "▁cender": 2111,
    "▁cenderung": 2112,
    "bab": 2113,
    "▁50": 2114,
    "▁rup": 2115,
    "▁ampera": 2116,
    "▁belanda": 2117,
    "▁ngobrol": 2118,
    "aku": 2119,
    "▁19": 2120,
    "▁kangen": 2121,
    "erima": 2122,
    "▁muslim": 2123,
    "pres": 2124,
    "▁malu": 2125,
    "ambut": 2126,
    "▁ris": 2127,
    "war": 2128,
    "▁rek": 2129,
    "▁nilai": 2130,
    "▁ib": 2131,
    "▁pertemuan": 2132,
    "▁masyarakat": 2133,
    "▁mencicipi": 2134,
    "▁yamin": 2135,
    "▁mengobrol": 2136,
    "▁mendukung": 2137,
    "▁menjadikan": 2138,
    "▁pemimpin": 2139,
    "▁aja": 2140,
    "▁lotek": 2141,
    "▁melakukan": 2142,
    "▁kings": 2143,
    "▁kingsley": 2144,
    "▁lima": 2145,
    "▁lat": 2146,
    "uy": 2147,
    "su": 2148,
    "▁gerindra": 2149,
    "▁semb": 2150,
    "▁baw": 2151,
    "▁aj": 2152,
    "▁25": 2153,
    "oor": 2154,
    "ukul": 2155,
    "enda": 2156,
    "▁segala": 2157,
    "▁alas": 2158,
    "▁gre": 2159,
    "augh": 2160,
    "▁menger": 2161,
    "bi": 2162,
    "▁gang": 2163,
    "▁kental": 2164,
    "▁pks": 2165,
    "anji": 2166,
    "ebat": 2167,
    "▁turun": 2168,
    "▁papua": 2169,
    "▁cream": 2170,
    "ry": 2171,
    "▁bakmoy": 2172,
    "enggel": 2173,
    "kar": 2174,
    "ambat": 2175,
    "kal": 2176,
    "ahat": 2177,
    "▁kecap": 2178,
    "▁sampah": 2179,
    "▁nyoba": 2180,
    "▁nyobain": 2181,
    "▁penting": 2182,
    "ulah": 2183,
    "▁pohon": 2184,
    "▁umat": 2185,
    "▁pulsa": 2186,
    "▁potongan": 2187,
    "▁che": 2188,
    "ebihan": 2189,
    "▁im": 2190,
    "sat": 2191,
    "ly": 2192,
    "▁internet": 2193,
    "▁ditemukan": 2194,
    "ack": 2195,
    "▁berani": 2196,
    "▁maj": 2197,
    "▁sol": 2198,
    "abiskan": 2199,
    "ien": 2200,
    "▁mirip": 2201,
    "▁negeri": 2202,
    "let": 2203,
    "▁ice": 2204,
    "▁raw": 2205,
    "▁dinikmati": 2206,
    "lama": 2207,
    "▁atm": 2208,
    "▁njung": 2209,
    "▁disarankan": 2210,
    "▁altern": 2211,
    "▁alternatif": 2212,
    "▁bukit": 2213,
    "▁entah": 2214,
    "inasi": 2215,
    "ormal": 2216,
    "▁tutup": 2217,
    "pad": 2218,
    "urkan": 2219,
    "▁mat": 2220,
    "▁kag": 2221,
    "ori": 2222,
    "▁danau": 2223,
    "▁dur": 2224,
    "▁jag": 2225,
    "iv": 2226,
    "▁mohon": 2227,
    "▁rekan": 2228,
    "▁tujuan": 2229,
    "▁kebers": 2230,
    "ataan": 2231,
    "▁puasa": 2232,
    "▁meriah": 2233,
    "▁perk": 2234,
    "▁sensasi": 2235,
    "unia": 2236,
    "▁karyawan": 2237,
    "laugh": 2238,
    "ith": 2239,
    "aki": 2240,
    "▁menjelang": 2241,
    "▁asal": 2242,
    "▁mengenyangkan": 2243,
    "▁tugas": 2244,
    "▁ketingg": 2245,
    "▁cabe": 2246,
    "▁njungi": 2247,
    "▁bin": 2248,
    "bt": 2249,
    "▁via": 2250,
    "▁handph": 2251,
    "▁handphone": 2252,
    "▁alami": 2253,
    "▁padma": 2254,
    "baikan": 2255,
    "▁butuh": 2256,
    "enakan": 2257,
    "sum": 2258,
    "▁gag": 2259,
    "▁permai": 2260,
    "▁kampus": 2261,
    "▁seles": 2262,
    "▁kebersihan": 2263,
    "▁terbuka": 2264,
    "unjuk": 2265,
    "▁sil": 2266,
    "oma": 2267,
    "▁pilgub": 2268,
    "▁menya": 2269,
    "▁tentang": 2270,
    "oses": 2271,
    "▁indih": 2272,
    "▁indihome": 2273,
    "▁merasakan": 2274,
    "▁kena": 2275,
    "▁bahan": 2276,
    "▁permainan": 2277,
    "indah": 2278,
    "▁sepadan": 2279,
    "▁perb": 2280,
    "▁timbel": 2281,
    "▁nah": 2282,
    "▁pacar": 2283,
    "sert": 2284,
    "isa": 2285,
    "ord": 2286,
    "adang": 2287,
    "▁tangan": 2288,
    "▁gagal": 2289,
    "▁pla": 2290,
    "▁cemilan": 2291,
    "▁mc": 2292,
    "▁fr": 2293,
    "intang": 2294,
    "entuk": 2295,
    "▁au": 2296,
    "▁setimp": 2297,
    "▁setimpal": 2298,
    "▁kamar": 2299,
    "▁jamur": 2300,
    "▁nkri": 2301,
    "▁merayakan": 2302,
    "▁menyeg": 2303,
    "yi": 2304,
    "▁cumi": 2305,
    "▁cih": 2306,
    "▁red": 2307,
    "emat": 2308,
    "▁ayo": 2309,
    "utu": 2310,
    "▁polisi": 2311,
    "oda": 2312,
    "akah": 2313,
    "idangkan": 2314,
    "▁novanto": 2315,
    "▁lagu": 2316,
    "ho": 2317,
    "▁meresap": 2318,
    "▁dessert": 2319,
    "rasi": 2320,
    "▁leb": 2321,
    "awat": 2322,
    "ukum": 2323,
    "▁potong": 2324,
    "▁lemah": 2325,
    "▁plaza": 2326,
    "tal": 2327,
    "▁segi": 2328,
    "▁maaf": 2329,
    "▁sisi": 2330,
    "eks": 2331,
    "▁mengambil": 2332,
    "▁dipakai": 2333,
    "▁ali": 2334,
    "ait": 2335,
    "▁allah": 2336,
    "▁taw": 2337,
    "ide": 2338,
    "▁posisi": 2339,
    "▁percaya": 2340,
    "▁antrean": 2341,
    "▁menghabiskan": 2342,
    "▁sinyal": 2343,
    "▁dipilih": 2344,
    "▁bohong": 2345,
    "▁tolol": 2346,
    "▁bb": 2347,
    "▁tuk": 2348,
    "▁kebun": 2349,
    "▁akal": 2350,
    "▁tentu": 2351,
    "▁court": 2352,
    "▁diberi": 2353,
    "esar": 2354,
    "apai": 2355,
    "ungkus": 2356,
    "▁dibawa": 2357,
    "▁ang": 2358,
    "▁van": 2359,
    "▁santap": 2360,
    "▁pv": 2361,
    "▁pvj": 2362,
    "uki": 2363,
    "▁sehat": 2364,
    "▁24": 2365,
    "▁ob": 2366,
    "▁spagh": 2367,
    "▁spaghet": 2368,
    "tif": 2369,
    "▁bec": 2370,
    "unyai": 2371,
    "▁jne": 2372,
    "▁jarang": 2373,
    "▁dunia": 2374,
    "▁jaringan": 2375,
    "▁bertem": 2376,
    "▁menyegarkan": 2377,
    "▁kuat": 2378,
    "uni": 2379,
    "▁seberang": 2380,
    "▁terbatas": 2381,
    "▁baj": 2382,
    "ember": 2383,
    "▁bul": 2384,
    "ber": 2385,
    "▁seluruh": 2386,
    "ha": 2387,
    "art": 2388,
    "▁menengah": 2389,
    "▁jalanan": 2390,
    "▁mush": 2391,
    "▁setya": 2392,
    "iew": 2393,
    "▁pedes": 2394,
    "amkan": 2395,
    "iaya": 2396,
    "▁pes": 2397,
    "▁masing": 2398,
    "▁stasi": 2399,
    "▁pah": 2400,
    "▁had": 2401,
    "▁ganti": 2402,
    "▁muka": 2403,
    "▁sura": 2404,
    "▁lg": 2405,
    "▁lgbt": 2406,
    "▁rm": 2407,
    "▁penataan": 2408,
    "dul": 2409,
    "▁sehari": 2410,
    "▁yum": 2411,
    "▁mempunyai": 2412,
    "▁terbayar": 2413,
    "▁rebus": 2414,
    "▁sabar": 2415,
    "▁digunakan": 2416,
    "bu": 2417,
    "aru": 2418,
    "▁ham": 2419,
    "▁sig": 2420,
    "▁susu": 2421,
    "▁garing": 2422,
    "osk": 2423,
    "▁bangga": 2424,
    "▁aman": 2425,
    "▁malas": 2426,
    "▁sesat": 2427,
    "▁melayani": 2428,
    "▁stasiun": 2429,
    "▁aduh": 2430,
    "▁surabaya": 2431,
    "▁bawang": 2432,
    "▁buatan": 2433,
    "▁oh": 2434,
    "▁gitu": 2435,
    "▁samping": 2436,
    "▁citar": 2437,
    "▁pakar": 2438,
    "▁pukul": 2439,
    "empatkan": 2440,
    "▁marta": 2441,
    "▁brow": 2442,
    "ella": 2443,
    "▁selesai": 2444,
    "▁sirloin": 2445,
    "▁kiri": 2446,
    "▁nat": 2447,
    "▁aroma": 2448,
    "que": 2449,
    "▁sing": 2450,
    "▁hawa": 2451,
    "ey": 2452,
    "▁rec": 2453,
    "▁pand": 2454,
    "▁rusak": 2455,
    "▁istana": 2456,
    "▁yamien": 2457,
    "▁kuota": 2458,
    "ash": 2459,
    "▁penj": 2460,
    "▁demi": 2461,
    "ira": 2462,
    "▁korupsi": 2463,
    "▁apakah": 2464,
    "▁pindah": 2465,
    "▁bni": 2466,
    "▁hi": 2467,
    "▁mewah": 2468,
    "▁hilang": 2469,
    "umpah": 2470,
    "▁hukum": 2471,
    "aji": 2472,
    "▁pemil": 2473,
    "anjut": 2474,
    "▁indoor": 2475,
    "▁kulit": 2476,
    "▁sejenis": 2477,
    "▁martabak": 2478,
    "▁salad": 2479,
    "▁terdiri": 2480,
    "▁kasir": 2481,
    "▁toil": 2482,
    "▁music": 2483,
    "ava": 2484,
    "my": 2485,
    "▁seru": 2486,
    "▁sw": 2487,
    "aksi": 2488,
    "edok": 2489,
    "▁cihamp": 2490,
    "▁cihampelas": 2491,
    "line": 2492,
    "▁kader": 2493,
    "▁libur": 2494,
    "▁sist": 2495,
    "▁om": 2496,
    "▁dimas": 2497,
    "▁hang": 2498,
    "du": 2499,
    "▁dri": 2500,
    "▁cob": 2501,
    "▁ragam": 2502,
    "ii": 2503,
    "▁dihidangkan": 2504,
    "▁membantu": 2505,
    "▁el": 2506,
    "▁col": 2507,
    "▁timur": 2508,
    "▁modern": 2509,
    "▁meminta": 2510,
    "▁api": 2511,
    "yaki": 2512,
    "▁calon": 2513,
    "ebo": 2514,
    "▁pop": 2515,
    "arap": 2516,
    "▁bentuk": 2517,
    "▁dicari": 2518,
    "ikuti": 2519,
    "▁mengant": 2520,
    "ubung": 2521,
    "▁klas": 2522,
    "antara": 2523,
    "▁memakai": 2524,
    "agub": 2525,
    "▁net": 2526,
    "▁memut": 2527,
    "▁sofa": 2528,
    "▁pa": 2529,
    "▁bca": 2530,
    "▁toilet": 2531,
    "▁setiabudi": 2532,
    "▁green": 2533,
    "ampang": 2534,
    "▁media": 2535,
    "▁pengin": 2536,
    "▁serasa": 2537,
    "▁singap": 2538,
    "▁tepung": 2539,
    "▁18th": 2540,
    "▁del": 2541,
    "▁rela": 2542,
    "▁zon": 2543,
    "▁pengh": 2544,
    "▁utara": 2545,
    "▁ditemani": 2546,
    "▁peg": 2547,
    "▁cua": 2548,
    "▁cuaca": 2549,
    "ous": 2550,
    "▁jeruk": 2551,
    "▁outlet": 2552,
    "▁pendukung": 2553,
    "▁alias": 2554,
    "▁over": 2555,
    "ewati": 2556,
    "▁susi": 2557,
    "▁rapi": 2558,
    "▁mandiri": 2559,
    "▁mangk": 2560,
    "fir": 2561,
    "▁biaya": 2562,
    "iti": 2563,
    "▁teri": 2564,
    "empah": 2565,
    "▁simpang": 2566,
    "▁dilakukan": 2567,
    "endang": 2568,
    "▁sabtu": 2569,
    "▁citarasa": 2570,
    "▁tingkat": 2571,
    "▁berlama": 2572,
    "▁was": 2573,
    "▁klasik": 2574,
    "pu": 2575,
    "iram": 2576,
    "ulis": 2577,
    "▁terbilang": 2578,
    "engkapi": 2579,
    "epas": 2580,
    "▁berj": 2581,
    "▁bud": 2582,
    "▁hai": 2583,
    "angkap": 2584,
    "itra": 2585,
    "ewith": 2586,
    "▁rep": 2587,
    "aris": 2588,
    "▁janji": 2589,
    "▁kepala": 2590,
    "kin": 2591,
    "▁jengk": 2592,
    "indu": 2593,
    "▁mantan": 2594,
    "▁okelah": 2595,
    "▁yakin": 2596,
    "ihak": 2597,
    "▁makana": 2598,
    "▁spot": 2599,
    "▁rupiah": 2600,
    "▁ciwalk": 2601,
    "▁bisnis": 2602,
    "▁atmos": 2603,
    "▁golkar": 2604,
    "▁panggang": 2605,
    "lampu": 2606,
    "ayaan": 2607,
    "▁sempur": 2608,
    "▁komp": 2609,
    "▁pepes": 2610,
    "▁he": 2611,
    "joy": 2612,
    "▁karap": 2613,
    "▁karapitan": 2614,
    "▁ulama": 2615,
    "▁kuning": 2616,
    "▁200": 2617,
    "▁ciri": 2618,
    "▁disambut": 2619,
    "eta": 2620,
    "ink": 2621,
    "▁gampang": 2622,
    "▁olahan": 2623,
    "▁chin": 2624,
    "▁dj": 2625,
    "▁kalinya": 2626,
    "▁model": 2627,
    "likasi": 2628,
    "ny": 2629,
    "usung": 2630,
    "▁art": 2631,
    "▁bicara": 2632,
    "▁terlebih": 2633,
    "▁fad": 2634,
    "afe": 2635,
    "ite": 2636,
    "ikasi": 2637,
    "▁suis": 2638,
    "▁beran": 2639,
    "▁tarik": 2640,
    "▁matang": 2641,
    "▁rumahan": 2642,
    "icy": 2643,
    "ck": 2644,
    "▁tni": 2645,
    "▁pedesaan": 2646,
    "▁tenggel": 2647,
    "▁tanah": 2648,
    "▁memper": 2649,
    "▁tipis": 2650,
    "masing": 2651,
    "▁jemp": 2652,
    "▁dikar": 2653,
    "▁sebagian": 2654,
    "▁mark": 2655,
    "ban": 2656,
    "▁sempurna": 2657,
    "▁padat": 2658,
    "▁sakit": 2659,
    "▁heran": 2660,
    "▁menonton": 2661,
    "▁kakak": 2662,
    "▁galau": 2663,
    "▁wan": 2664,
    "▁menyempatkan": 2665,
    "▁bermacam": 2666,
    "arat": 2667,
    "ahu": 2668,
    "gara": 2669,
    "▁jumlah": 2670,
    "▁terhadap": 2671,
    "▁berjalan": 2672,
    "▁risma": 2673,
    "▁sapu": 2674,
    "▁pengec": 2675,
    "baiki": 2676,
    "▁servis": 2677,
    "▁sedangkan": 2678,
    "▁asia": 2679,
    "▁aplikasi": 2680,
    "anjakan": 2681,
    "▁agus": 2682,
    "▁sistem": 2683,
    "gah": 2684,
    "▁butcher": 2685,
    "▁kasihan": 2686,
    "▁menyeb": 2687,
    "▁gerai": 2688,
    "di": 2689,
    "▁melewati": 2690,
    "▁hemat": 2691,
    "▁ref": 2692,
    "▁renyah": 2693,
    "▁tebal": 2694,
    "▁jog": 2695,
    "▁burung": 2696,
    "▁prog": 2697,
    "▁sumpah": 2698,
    "upuk": 2699,
    "▁sub": 2700,
    "isah": 2701,
    "▁kocok": 2702,
    "▁fre": 2703,
    "▁tokop": 2704,
    "▁tokopedia": 2705,
    "▁mengikuti": 2706,
    "▁sekolah": 2707,
    "▁ketinggian": 2708,
    "▁kristen": 2709,
    "▁mcd": 2710,
    "▁rujak": 2711,
    "▁kelas": 2712,
    "▁telor": 2713,
    "saung": 2714,
    "▁bintang": 2715,
    "▁cheese": 2716,
    "ons": 2717,
    "▁romb": 2718,
    "▁rombongan": 2719,
    "▁java": 2720,
    "▁trav": 2721,
    "▁kasus": 2722,
    "▁pengirim": 2723,
    "▁maks": 2724,
    "▁batu": 2725,
    "▁aceh": 2726,
    "▁sedih": 2727,
    "deka": 2728,
    "▁bekerja": 2729,
    "▁menggu": 2730,
    "▁gem": 2731,
    "▁potato": 2732,
    "▁berfoto": 2733,
    "▁beraneka": 2734,
    "▁ra": 2735,
    "etan": 2736,
    "room": 2737,
    "antung": 2738,
    "▁sekalian": 2739,
    "▁gun": 2740,
    "▁inform": 2741,
    "▁lah": 2742,
    "▁mendoan": 2743,
    "▁ribuan": 2744,
    "▁menyantap": 2745,
    "▁tulang": 2746,
    "eksi": 2747,
    "▁dikarenakan": 2748,
    "ibur": 2749,
    "▁rendang": 2750,
    "▁pal": 2751,
    "▁mengantre": 2752,
    "▁memutuskan": 2753,
    "uci": 2754,
    "rik": 2755,
    "▁app": 2756,
    "▁rugi": 2757,
    "menu": 2758,
    "▁dilengkapi": 2759,
    "▁respon": 2760,
    "▁berg": 2761,
    "▁terenak": 2762,
    "▁silakan": 2763,
    "▁proses": 2764,
    "▁gelap": 2765,
    "ecial": 2766,
    "arti": 2767,
    "▁berkesan": 2768,
    "▁baju": 2769,
    "▁maju": 2770,
    "▁pengiriman": 2771,
    "▁bertemu": 2772,
    "unyi": 2773,
    "▁urus": 2774,
    "biasa": 2775,
    "▁bodoh": 2776,
    "▁cerita": 2777,
    "jur": 2778,
    "ekan": 2779,
    "▁memberi": 2780,
    "▁seni": 2781,
    "▁menggugah": 2782,
    "▁dimasak": 2783,
    "aksa": 2784,
    "▁buku": 2785,
    "unungan": 2786,
    "▁driver": 2787,
    "siap": 2788,
    "usnya": 2789,
    "▁ps": 2790,
    "▁suh": 2791,
    "osis": 2792,
    "▁info": 2793,
    "▁segera": 2794,
    "tuju": 2795,
    "ode": 2796,
    "stur": 2797,
    "enuhi": 2798,
    "▁paris": 2799,
    "▁mot": 2800,
    "ampung": 2801,
    "▁yog": 2802,
    "ontoh": 2803,
    "▁diskon": 2804,
    "ukaan": 2805,
    "▁cak": 2806,
    "asmanan": 2807,
    "▁lambat": 2808,
    "▁berharap": 2809,
    "▁gen": 2810,
    "entar": 2811,
    "▁durian": 2812,
    "▁fit": 2813,
    "▁paste": 2814,
    "▁pasteur": 2815,
    "enti": 2816,
    "umahan": 2817,
    "▁vo": 2818,
    "▁lidi": 2819,
    "▁tema": 2820,
    "▁babat": 2821,
    "▁shop": 2822,
    "▁minyak": 2823,
    "▁baca": 2824,
    "▁fadli": 2825,
    "▁kl": 2826,
    "▁pegunungan": 2827,
    "▁hebat": 2828,
    "▁tiga": 2829,
    "▁coff": 2830,
    "▁dap": 2831,
    "▁fah": 2832,
    "▁didapat": 2833,
    "▁sehar": 2834,
    "▁seharusnya": 2835,
    "▁kira": 2836,
    "▁gig": 2837,
    "▁pihak": 2838,
    "▁2014": 2839,
    "▁tw": 2840,
    "▁teras": 2841,
    "▁cemb": 2842,
    "▁cemburu": 2843,
    "▁berdiri": 2844,
    "▁wine": 2845,
    "▁restaurant": 2846,
    "▁haha": 2847,
    "▁topping": 2848,
    "▁paskal": 2849,
    "▁mad": 2850,
    "irahat": 2851,
    "▁lil": 2852,
    "▁rempah": 2853,
    "▁jal": 2854,
    "apun": 2855,
    "rang": 2856,
    "▁free": 2857,
    "▁dos": 2858,
    "▁mengingat": 2859,
    "▁11": 2860,
    "▁dilihat": 2861,
    "▁by": 2862,
    "eliling": 2863,
    "▁memasuki": 2864,
    "▁karedok": 2865,
    "▁berc": 2866,
    "▁kafir": 2867,
    "▁komplit": 2868,
    "edit": 2869,
    "ukur": 2870,
    "▁iri": 2871,
    "▁term": 2872,
    "▁perumahan": 2873,
    "▁hut": 2874,
    "▁special": 2875,
    "▁tersendiri": 2876,
    "▁pribumi": 2877,
    "▁pencitra": 2878,
    "▁pencitraan": 2879,
    "▁kalangan": 2880,
    "▁lont": 2881,
    "▁merdeka": 2882,
    "▁40": 2883,
    "ankan": 2884,
    "▁hanc": 2885,
    "▁ph": 2886,
    "isasi": 2887,
    "amping": 2888,
    "▁met": 2889,
    "▁orig": 2890,
    "▁jarak": 2891,
    "▁rawit": 2892,
    "▁cl": 2893,
    "▁era": 2894,
    "▁bip": 2895,
    "▁tukang": 2896,
    "▁setuju": 2897,
    "▁tekstur": 2898,
    "▁motor": 2899,
    "aks": 2900,
    "▁penjual": 2901,
    "ongkow": 2902,
    "▁dal": 2903,
    "▁wakil": 2904,
    "▁desa": 2905,
    "oi": 2906,
    "oo": 2907,
    "▁membayar": 2908,
    "▁dr": 2909,
    "▁law": 2910,
    "▁lho": 2911,
    "▁bad": 2912,
    "▁prasmanan": 2913,
    "nik": 2914,
    "pek": 2915,
    "wak": 2916,
    "▁tertarik": 2917,
    "▁pok": 2918,
    "▁tanya": 2919,
    "▁inilah": 2920,
    "▁ver": 2921,
    "▁bangsat": 2922,
    "▁angin": 2923,
    "tika": 2924,
    "▁dikir": 2925,
    "▁hambar": 2926,
    "erit": 2927,
    "▁terjadi": 2928,
    "▁cuan": 2929,
    "▁lingk": 2930,
    "▁yummy": 2931,
    "▁ip": 2932,
    "▁cam": 2933,
    "▁pengecut": 2934,
    "▁melelah": 2935,
    "▁melelahkan": 2936,
    "▁legend": 2937,
    "▁bac": 2938,
    "▁q": 2939,
    "kali": 2940,
    "anggu": 2941,
    "▁ta": 2942,
    "▁terc": 2943,
    "▁benci": 2944,
    "▁berga": 2945,
    "ng": 2946,
    "▁amb": 2947,
    "▁mengajak": 2948,
    "▁jab": 2949,
    "illa": 2950,
    "▁kaldu": 2951,
    "sar": 2952,
    "▁choc": 2953,
    "olate": 2954,
    "▁pek": 2955,
    "▁diajak": 2956,
    "▁hy": 2957,
    "▁mengur": 2958,
    "erta": 2959,
    "able": 2960,
    "▁mushroom": 2961,
    "▁korea": 2962,
    "▁jawaban": 2963,
    "▁disebut": 2964,
    "▁saran": 2965,
    "▁gunung": 2966,
    "▁kotak": 2967,
    "▁nus": 2968,
    "▁musim": 2969,
    "▁2015": 2970,
    "▁ingat": 2971,
    "▁wait": 2972,
    "▁kwet": 2973,
    "▁supaya": 2974,
    "▁ide": 2975,
    "▁contoh": 2976,
    "▁ur": 2977,
    "▁spaghetti": 2978,
    "▁kaleng": 2979,
    "▁china": 2980,
    "etul": 2981,
    "ohonan": 2982,
    "▁tong": 2983,
    "impinan": 2984,
    "▁menghadap": 2985,
    "▁sukses": 2986,
    "▁dimsum": 2987,
    "lis": 2988,
    "▁rapat": 2989,
    "▁keramai": 2990,
    "▁keramaian": 2991,
    "▁kanan": 2992,
    "▁bunga": 2993,
    "▁kelap": 2994,
    "entik": 2995,
    "▁jenuh": 2996,
    "elok": 2997,
    "atangan": 2998,
    "etik": 2999,
    "▁kekur": 3000,
    "▁kekurangan": 3001,
    "▁vou": 3002,
    "▁voucher": 3003,
    "sial": 3004,
    "uti": 3005,
    "▁camilan": 3006,
    "▁rev": 3007,
    "▁kapan": 3008,
    "ikap": 3009,
    "fac": 3010,
    "▁rekomendasikan": 3011,
    "▁online": 3012,
    "▁jualan": 3013,
    "to": 3014,
    "ery": 3015,
    "▁wor": 3016,
    "unt": 3017,
    "▁lontong": 3018,
    "▁memanjakan": 3019,
    "▁sepanjang": 3020,
    "▁mengerjakan": 3021,
    "▁tuhan": 3022,
    "▁wajar": 3023,
    "▁keindah": 3024,
    "▁keindahan": 3025,
    "▁miskin": 3026,
    "▁jengkol": 3027,
    "eric": 3028,
    "▁chocolate": 3029,
    "ompet": 3030,
    "andang": 3031,
    "▁tertentu": 3032,
    "▁dom": 3033,
    "▁dikatakan": 3034,
    "▁dibakar": 3035,
    "▁han": 3036,
    "▁tumb": 3037,
    "erl": 3038,
    "▁ni": 3039,
    "▁hmm": 3040,
    "▁ment": 3041,
    "ovasi": 3042,
    "no": 3043,
    "▁cur": 3044,
    "▁mangkok": 3045,
    "▁ajak": 3046,
    "pp": 3047,
    "▁mari": 3048,
    "▁saud": 3049,
    "enci": 3050,
    "com": 3051,
    "▁baso": 3052,
    "▁itali": 3053,
    "▁pancake": 3054,
    "angganan": 3055,
    "▁sopan": 3056,
    "hat": 3057,
    "▁musala": 3058,
    "▁kesukaan": 3059,
    "yum": 3060,
    "▁pepohonan": 3061,
    "▁pemilik": 3062,
    "▁senin": 3063,
    "▁juta": 3064,
    "▁prof": 3065,
    "▁ditanya": 3066,
    "ostal": 3067,
    "ostalg": 3068,
    "▁itulah": 3069,
    "ps": 3070,
    "▁instag": 3071,
    "▁wanita": 3072,
    "▁menyer": 3073,
    "▁sukaj": 3074,
    "▁sukajadi": 3075,
    "atkan": 3076,
    "▁kaget": 3077,
    "▁pilpres": 3078,
    "nam": 3079,
    "▁browni": 3080,
    "▁brownies": 3081,
    "▁tv": 3082,
    "usaha": 3083,
    "▁jad": 3084,
    "▁kencang": 3085,
    "▁becus": 3086,
    "itif": 3087,
    "▁alh": 3088,
    "▁melulu": 3089,
    "▁kompleks": 3091,
    "▁bertanya": 3092,
    "▁bantu": 3093,
    "▁transaksi": 3094,
    "▁bog": 3095,
    "▁setia": 3096,
    "▁17": 3097,
    "▁halaman": 3098,
    "▁asem": 3099,
    "▁tau": 3100,
    "▁persis": 3101,
    "▁pi": 3102,
    "▁riz": 3103,
    "bung": 3104,
    "ling": 3105,
    "ista": 3106,
    "jauh": 3107,
    "▁walk": 3108,
    "▁imp": 3109,
    "▁sepuas": 3110,
    "▁tampak": 3111,
    "▁busuk": 3112,
    "tikan": 3113,
    "▁penyuka": 3114,
    "▁kiosk": 3115,
    "▁berita": 3116,
    "▁tenggelamkan": 3117,
    "▁kapal": 3118,
    "▁cup": 3119,
    "jo": 3120,
    "▁saudara": 3121,
    "▁upn": 3122,
    "▁upnormal": 3123,
    "▁terong": 3124,
    "▁trili": 3125,
    "uma": 3126,
    "nahkan": 3127,
    "▁nasional": 3128,
    "▁jalur": 3129,
    "▁bon": 3130,
    "ust": 3131,
    "edd": 3132,
    "▁dibuka": 3133,
    "▁dosen": 3134,
    "ure": 3135,
    "mad": 3136,
    "aikan": 3137,
    "▁der": 3138,
    "emang": 3139,
    "▁my": 3140,
    "▁kat": 3141,
    "ostalgia": 3142,
    "udah": 3143,
    "▁bahaya": 3144,
    "ordon": 3145,
    "itung": 3146,
    "▁betul": 3147,
    "▁poin": 3148,
    "encana": 3149,
    "san": 3150,
    "▁dicampur": 3151,
    "empuan": 3152,
    "gus": 3153,
    "alisi": 3154,
    "▁gb": 3155,
    "▁puluhan": 3156,
    "ombong": 3157,
    "▁pegaw": 3158,
    "▁ribet": 3159,
    "▁cuanki": 3160,
    "▁hahaha": 3161,
    "▁chinese": 3162,
    "▁gor": 3163,
    "ach": 3164,
    "▁legendaris": 3165,
    "▁kari": 3166,
    "▁medi": 3167,
    "▁demiz": 3168,
    "▁bahasa": 3169,
    "bat": 3170,
    "▁dki": 3171,
    "▁loung": 3172,
    "▁sy": 3173,
    "ulkan": 3174,
    "▁suasa": 3175,
    "▁cobalah": 3176,
    "▁dompet": 3177,
    "tion": 3178,
    "▁may": 3179,
    "▁box": 3180,
    "▁sosis": 3181,
    "▁barb": 3182,
    "angka": 3183,
    "▁bebas": 3184,
    "▁kit": 3185,
    "▁pond": 3186,
    "▁dapatkan": 3187,
    "▁shabu": 3188,
    "▁xia": 3189,
    "▁xiaomi": 3190,
    "▁foodco": 3191,
    "▁foodcourt": 3192,
    "▁megaw": 3193,
    "▁megawati": 3194,
    "▁sara": 3195,
    "▁bodo": 3196,
    "ening": 3197,
    "▁kebaikan": 3198,
    "▁mest": 3199,
    "▁mesti": 3200,
    "▁kaca": 3201,
    "▁dikit": 3202,
    "olan": 3203,
    "▁cip": 3204,
    "▁kerupuk": 3205,
    "adakan": 3206,
    "ahuan": 3207,
    "▁bangku": 3208,
    "▁juice": 3209,
    "▁menjaga": 3210,
    "▁kre": 3211,
    "▁prov": 3212,
    "▁kik": 3213,
    "▁com": 3214,
    "▁kemari": 3215,
    "▁komplet": 3216,
    "angun": 3217,
    "mana": 3218,
    "▁petugas": 3219,
    "ompok": 3220,
    "ge": 3221,
    "afik": 3222,
    "▁nusantara": 3223,
    "▁sembari": 3224,
    "▁singapore": 3225,
    "▁kini": 3226,
    "▁cin": 3227,
    "▁2017": 3228,
    "elanja": 3229,
    "emes": 3230,
    "▁perempuan": 3231,
    "esta": 3232,
    "▁minim": 3233,
    "min": 3234,
    "▁kirim": 3235,
    "▁sekaligus": 3236,
    "▁tiram": 3237,
    "▁mb": 3238,
    "▁sombong": 3239,
    "▁belajar": 3240,
    "▁pegawai": 3241,
    "▁gini": 3242,
    "▁14": 3243,
    "▁lingkungan": 3244,
    "anggung": 3245,
    "la": 3246,
    "enangan": 3247,
    "ner": 3248,
    "▁pandan": 3249,
    "jub": 3250,
    "undang": 3251,
    "▁disug": 3252,
    "▁medium": 3253,
    "▁lemon": 3254,
    "uali": 3255,
    "▁maling": 3256,
    "tp": 3257,
    "▁lounge": 3258,
    "▁merek": 3259,
    "▁berapa": 3260,
    "adaan": 3261,
    "unc": 3262,
    "▁pasir": 3263,
    "▁original": 3264,
    "▁ulasan": 3265,
    "▁konsum": 3266,
    "jam": 3267,
    "▁sigap": 3268,
    "▁lumayanlah": 3269,
    "urse": 3270,
    "▁trip": 3271,
    "▁log": 3272,
    "isik": 3273,
    "ensi": 3274,
    "uce": 3275,
    "▁gengg": 3276,
    "▁genggam": 3277,
    "▁kongkow": 3278,
    "alahan": 3279,
    "▁madu": 3280,
    "▁membenci": 3281,
    "ihkan": 3282,
    "▁hyper": 3283,
    "▁informasi": 3284,
    "▁mengenai": 3285,
    "▁lun": 3286,
    "▁lawang": 3287,
    "▁kelebihan": 3288,
    "ark": 3289,
    "▁camp": 3290,
    "ebar": 3291,
    "▁kikil": 3292,
    "▁jogja": 3293,
    "han": 3294,
    "▁buang": 3295,
    "▁terang": 3296,
    "▁sebab": 3297,
    "▁singg": 3298,
    "ike": 3299,
    "▁riri": 3300,
    "tiba": 3301,
    "▁grab": 3302,
    "▁tum": 3303,
    "▁selanjut": 3304,
    "▁selanjutnya": 3305,
    "etari": 3306,
    "▁poko": 3307,
    "▁munafik": 3308,
    "▁serba": 3309,
    "akuan": 3310,
    "jaj": 3311,
    "▁badan": 3312,
    "▁itb": 3313,
    "▁berbelanja": 3314,
    "▁semacam": 3315,
    "erra": 3316,
    "▁komun": 3317,
    "▁duit": 3318,
    "▁teg": 3319,
    "▁kredit": 3320,
    "our": 3321,
    "▁sosial": 3322,
    "▁penginapan": 3323,
    "▁fo": 3324,
    "▁black": 3325,
    "lan": 3326,
    "▁dilayani": 3327,
    "▁nikmati": 3328,
    "▁justr": 3329,
    "▁justru": 3330,
    "embunyi": 3331,
    "ebong": 3332,
    "▁tas": 3333,
    "▁rut": 3334,
    "ola": 3335,
    "▁mengatakan": 3336,
    "py": 3337,
    "▁sement": 3338,
    "▁sementara": 3339,
    "▁isu": 3340,
    "▁kacau": 3341,
    "▁menggoda": 3342,
    "ahankan": 3343,
    "▁hom": 3344,
    "▁fahri": 3345,
    "▁sejauh": 3346,
    "aut": 3347,
    "▁gad": 3348,
    "▁cir": 3349,
    "inan": 3350,
    "aga": 3351,
    "▁binatang": 3352,
    "eo": 3353,
    "ramah": 3354,
    "ser": 3355,
    "▁kereta": 3356,
    "▁21": 3357,
    "▁kawan": 3358,
    "▁dana": 3359,
    "abisan": 3360,
    "▁lebaran": 3361,
    "▁sug": 3362,
    "▁lembah": 3363,
    "emen": 3364,
    "▁keti": 3365,
    "▁triliun": 3366,
    "▁grup": 3367,
    "▁nan": 3368,
    "▁puy": 3369,
    "▁wil": 3370,
    "▁harapan": 3371,
    "ft": 3372,
    "ono": 3373,
    "▁sya": 3374,
    "▁konsisten": 3375,
    "▁dind": 3376,
    "▁usaha": 3377,
    "anakan": 3378,
    "▁seenak": 3379,
    "▁campuran": 3380,
    "yu": 3381,
    "▁cong": 3382,
    "▁pembayar": 3383,
    "pekt": 3384,
    "pektasi": 3385,
    "waktu": 3386,
    "▁diperbaiki": 3387,
    "kr": 3388,
    "bangan": 3389,
    "▁saking": 3390,
    "was": 3391,
    "▁hti": 3392,
    "ino": 3393,
    "▁ujung": 3394,
    "▁cordon": 3395,
    "ahui": 3396,
    "▁bukal": 3397,
    "▁bukalapak": 3398,
    "▁sib": 3399,
    "▁kremes": 3400,
    "▁fak": 3401,
    "▁tar": 3402,
    "▁jempol": 3403,
    "▁kiner": 3404,
    "▁kinerja": 3405,
    "▁jagung": 3406,
    "▁sandi": 3407,
    "rek": 3408,
    "ampak": 3409,
    "▁hahah": 3410,
    "▁pt": 3411,
    "▁berlebihan": 3412,
    "▁sajikan": 3413,
    "▁gus": 3414,
    "▁play": 3415,
    "andung": 3416,
    "anyi": 3417,
    "▁tersembunyi": 3418,
    "▁uni": 3419,
    "▁bih": 3420,
    "▁tawar": 3421,
    "▁sadar": 3422,
    "uhi": 3423,
    "▁standart": 3424,
    "ijik": 3425,
    "▁menemani": 3426,
    "▁tuna": 3427,
    "▁hancur": 3428,
    "▁mengapa": 3429,
    "ahkan": 3430,
    "▁lomie": 3431,
    "▁bunuh": 3432,
    "▁kamera": 3433,
    "▁dapur": 3434,
    "▁kaum": 3435,
    "▁ragu": 3436,
    "▁basah": 3437,
    "par": 3438,
    "▁course": 3439,
    "ish": 3440,
    "makan": 3441,
    "iksa": 3442,
    "▁tul": 3443,
    "▁sauce": 3444,
    "wi": 3445,
    "▁all": 3446,
    "ikian": 3447,
    "▁sang": 3448,
    "▁makl": 3449,
    "he": 3450,
    "▁asap": 3451,
    "▁semangat": 3452,
    "ater": 3453,
    "▁berisi": 3454,
    "▁menyebalkan": 3455,
    "▁cend": 3456,
    "▁tampilan": 3457,
    "▁istirahat": 3458,
    "alahkan": 3459,
    "aing": 3460,
    "▁pener": 3461,
    "▁lilin": 3462,
    "▁akun": 3463,
    "▁medan": 3464,
    "▁irisan": 3465,
    "ress": 3466,
    "▁kenyal": 3467,
    "onj": 3468,
    "onomi": 3469,
    "▁tangga": 3470,
    "▁J": 3471,
    "▁Jakarta": 3472,
    "▁renang": 3473,
    "▁pembayaran": 3474,
    "den": 3475,
    "indang": 3476,
    "▁tidur": 3477,
    "rib": 3478,
    "▁musnahkan": 3479,
    "▁latte": 3480,
    "sama": 3481,
    "aff": 3482,
    "▁bekasi": 3483,
    "▁room": 3484,
    "▁daya": 3485,
    "▁bungkus": 3486,
    "▁diterima": 3487,
    "me": 3488,
    "▁berbentuk": 3489,
    "▁ormas": 3490,
    "▁sibuk": 3491,
    "itter": 3492,
    "de": 3493,
    "▁kartika": 3494,
    "▁tab": 3495,
    "▁fitnah": 3496,
    "▁iblis": 3497,
    "▁solo": 3498,
    "▁kris": 3499,
    "▁hindu": 3500,
    "▁koalisi": 3501,
    "▁lelah": 3502,
    "▁otentik": 3503,
    "▁anti": 3504,
    "hatian": 3505,
    "▁studi": 3506,
    "▁datanglah": 3507,
    "▁her": 3508,
    "illah": 3509,
    "oking": 3510,
    "▁amis": 3511,
    "▁af": 3512,
    "utar": 3513,
    "▁ikutan": 3514,
    "▁mangga": 3515,
    "▁bogor": 3516,
    "warna": 3517,
    "▁bihun": 3518,
    "angkat": 3519,
    "▁jujur": 3520,
    "▁sekelas": 3521,
    "▁seri": 3522,
    "▁bukti": 3523,
    "yangan": 3524,
    "elu": 3525,
    "angunan": 3526,
    "▁pajak": 3527,
    "▁restauran": 3528,
    "▁sangatlah": 3529,
    "▁biada": 3530,
    "▁biadab": 3531,
    "ebelah": 3532,
    "sh": 3533,
    "▁bule": 3534,
    "agukan": 3535,
    "▁rada": 3536,
    "ght": 3537,
    "▁aliran": 3538,
    "▁data": 3539,
    "▁peri": 3540,
    "▁besok": 3541,
    "▁pud": 3542,
    "fer": 3543,
    "▁diam": 3544,
    "jid": 3545,
    "▁maklum": 3546,
    "tory": 3547,
    "▁pk": 3548,
    "▁kehabisan": 3549,
    "▁80": 3550,
    "▁dalem": 3551,
    "▁oncom": 3552,
    "▁perpad": 3553,
    "▁akti": 3554,
    "quar": 3555,
    "quare": 3556,
    "ramai": 3557,
    "▁indonesian": 3558,
    "▁kweti": 3559,
    "▁kwetiau": 3560,
    "▁italia": 3561,
    "▁langganan": 3562,
    "▁capek": 3563,
    "cakan": 3564,
    "▁muak": 3565,
    "▁pam": 3566,
    "▁16": 3567,
    "anyak": 3568,
    "▁kelihat": 3569,
    "▁kelihatan": 3570,
    "▁didukung": 3571,
    "▁kepem": 3572,
    "▁urat": 3573,
    "▁de": 3574,
    "tro": 3575,
    "▁mendek": 3576,
    "▁kolon": 3577,
    "▁demokrasi": 3578,
    "▁berikut": 3579,
    "▁mainan": 3580,
    "▁gigg": 3581,
    "▁giggle": 3582,
    "▁singgah": 3583,
    "▁bangkit": 3584,
    "▁surabi": 3585,
    "▁ceker": 3586,
    "▁jamb": 3587,
    "ble": 3588,
    "zebo": 3589,
    "cing": 3590,
    "▁int": 3591,
    "▁bacot": 3592,
    "▁menerima": 3593,
    "▁pro": 3594,
    "▁moz": 3595,
    "▁2016": 3596,
    "▁mengal": 3597,
    "emi": 3598,
    "eque": 3599,
    "▁kelaparan": 3600,
    "▁sewaktu": 3601,
    "adak": 3602,
    "▁caw": 3603,
    "uari": 3604,
    "▁perahu": 3605,
    "ona": 3606,
    "▁pemerintahan": 3607,
    "▁arti": 3608,
    "▁hainan": 3609,
    "▁jend": 3610,
    "▁memasak": 3611,
    "▁bahagi": 3612,
    "▁bahagia": 3613,
    "▁perhatian": 3614,
    "cul": 3615,
    "▁sarankan": 3616,
    "▁studio": 3617,
    "▁nonton": 3618,
    "▁nyam": 3619,
    "▁berkali": 3620,
    "▁terminal": 3621,
    "▁garang": 3622,
    "bang": 3623,
    "ingfac": 3624,
    "sm": 3625,
    "▁eat": 3626,
    "sung": 3627,
    "▁gulai": 3628,
    "▁worth": 3629,
    "▁ungg": 3630,
    "ebr": 3631,
    "▁gud": 3632,
    "▁jijik": 3633,
    "bar": 3634,
    "▁kecuali": 3635,
    "▁pembangunan": 3636,
    "▁salut": 3637,
    "eu": 3638,
    "▁arisan": 3639,
    "▁penyet": 3640,
    "alikan": 3641,
    "▁ikh": 3642,
    "▁merekomendasikan": 3643,
    "▁seharian": 3644,
    "▁jasa": 3645,
    "▁terjaga": 3646,
    "ingkatkan": 3647,
    "atus": 3648,
    "▁antar": 3649,
    "▁membela": 3650,
    "▁galeri": 3651,
    "iarkan": 3652,
    "▁standard": 3653,
    "▁doy": 3654,
    "orkan": 3655,
    "gil": 3656,
    "▁lakukan": 3657,
    "ator": 3658,
    "▁pondok": 3659,
    "▁periode": 3660,
    "▁selatan": 3661,
    "▁70": 3662,
    "▁banding": 3663,
    "ral": 3664,
    "are": 3665,
    "olak": 3666,
    "▁ditutup": 3667,
    "▁90": 3668,
    "iaga": 3669,
    "▁halo": 3670,
    "▁gil": 3671,
    "▁perpaduan": 3672,
    "set": 3673,
    "▁bubarkan": 3674,
    "▁paham": 3675,
    "wisata": 3676,
    "▁cahaya": 3677,
    "▁mengak": 3678,
    "▁perju": 3679,
    "▁wilayah": 3680,
    "▁bancakan": 3681,
    "olog": 3682,
    "▁berkelas": 3683,
    "▁adik": 3684,
    "asaan": 3685,
    "▁senyum": 3686,
    "▁rice": 3687,
    "otif": 3688,
    "ka": 3689,
    "▁saling": 3690,
    "▁dicapai": 3691,
    "▁las": 3692,
    "arif": 3693,
    "usuk": 3694,
    "we": 3695,
    "rest": 3696,
    "uli": 3697,
    "▁pernik": 3698,
    "▁ekspektasi": 3699,
    "▁tebing": 3700,
    "▁alat": 3701,
    "▁bumi": 3702,
    "estasi": 3703,
    "epatan": 3704,
    "▁gazebo": 3705,
    "rot": 3706,
    "▁bola": 3707,
    "▁raja": 3708,
    "▁fl": 3709,
    "▁milik": 3710,
    "▁bermin": 3711,
    "▁gambar": 3712,
    "alas": 3713,
    "otong": 3714,
    "▁barbeque": 3715,
    "▁matah": 3716,
    "oritas": 3717,
    "▁biji": 3718,
    "upan": 3719,
    "aket": 3720,
    "▁lel": 3721,
    "▁cobain": 3722,
    "▁pesta": 3723,
    "uler": 3724,
    "▁bos": 3725,
    "▁cuci": 3726,
    "intar": 3727,
    "hand": 3728,
    "▁lump": 3729,
    "▁sierra": 3730,
    "▁ara": 3731,
    "▁setan": 3732,
    "▁bbm": 3733,
    "▁instagram": 3734,
    "▁mengurus": 3735,
    "▁telat": 3736,
    "marah": 3737,
    "▁sehabis": 3738,
    "▁positif": 3739,
    "uble": 3740,
    "▁mom": 3741,
    "▁alham": 3742,
    "▁alhamdul": 3743,
    "ural": 3744,
    "▁bertanggung": 3745,
    "bil": 3746,
    "omong": 3747,
    "agan": 3748,
    "▁sikap": 3749,
    "▁cebong": 3750,
    "▁djar": 3751,
    "▁ub": 3752,
    "▁berwarna": 3753,
    "▁email": 3754,
    "▁yo": 3755,
    "▁ins": 3756,
    "▁urusan": 3757,
    "adah": 3758,
    "▁menak": 3759,
    "alik": 3760,
    "uang": 3761,
    "▁bergaya": 3762,
    "▁ikhlas": 3763,
    "ormat": 3764,
    "anggap": 3765,
    "▁surga": 3766,
    "ron": 3767,
    "▁serabi": 3768,
    "cur": 3769,
    "▁rez": 3770,
    "ikal": 3771,
    "▁we": 3772,
    "▁veg": 3773,
    "▁doyan": 3774,
    "▁sant": 3775,
    "▁beserta": 3776,
    "▁150": 3777,
    "ksh": 3778,
    "▁gop": 3779,
    "▁berbau": 3780,
    "ungi": 3781,
    "▁pemesan": 3782,
    "▁mikir": 3783,
    "▁spicy": 3784,
    "lung": 3785,
    "▁normal": 3786,
    "ici": 3787,
    "▁rendah": 3788,
    "alatan": 3789,
    "▁menguras": 3790,
    "▁sahabat": 3791,
    "oeng": 3792,
    "▁35": 3793,
    "▁suatu": 3794,
    "▁percuma": 3795,
    "▁yuk": 3796,
    "▁mandi": 3797,
    "ebak": 3798,
    "▁bakut": 3799,
    "▁mencapai": 3800,
    "anjak": 3801,
    "▁milih": 3802,
    "▁japan": 3803,
    "▁apik": 3804,
    "▁kreatif": 3805,
    "▁kepemimpinan": 3806,
    "tik": 3807,
    "▁te": 3808,
    "▁keadaan": 3809,
    "▁della": 3810,
    "ual": 3811,
    "▁lapor": 3812,
    "▁perjuangan": 3813,
    "▁rindang": 3814,
    "▁dibeli": 3815,
    "▁lalat": 3816,
    "▁hits": 3817,
    "ess": 3818,
    "▁kelompok": 3819,
    "ation": 3820,
    "▁tumis": 3821,
    "iman": 3822,
    "▁gi": 3823,
    "tad": 3824,
    "▁menghad": 3825,
    "▁pur": 3826,
    "▁komb": 3827,
    "idang": 3828,
    "ogan": 3829,
    "▁guna": 3830,
    "▁kenal": 3831,
    "utuhkan": 3832,
    "▁restor": 3833,
    "▁menget": 3834,
    "▁betutu": 3835,
    "▁dikenal": 3836,
    "▁wisatawan": 3837,
    "▁dikirim": 3838,
    "ise": 3839,
    "imal": 3840,
    "adit": 3841,
    "▁tipe": 3842,
    "uasaan": 3843,
    "uko": 3844,
    "▁burang": 3845,
    "▁burangrang": 3846,
    "▁send": 3847,
    "ampilan": 3848,
    "ower": 3849,
    "▁arab": 3850,
    "▁kum": 3851,
    "▁review": 3852,
    "udhi": 3853,
    "ubungan": 3854,
    "▁muncul": 3855,
    "▁dinas": 3856,
    "obi": 3857,
    "▁alhamdulillah": 3858,
    "▁diminta": 3859,
    "entasi": 3860,
    "ilat": 3861,
    "▁recom": 3862,
    "▁kerasa": 3863,
    "▁tes": 3864,
    "▁vide": 3865,
    "▁asing": 3866,
    "inkan": 3867,
    "▁menakjub": 3868,
    "▁menakjubkan": 3869,
    "▁cafe": 3870,
    "▁dat": 3871,
    "jabat": 3872,
    "▁tut": 3873,
    "▁sudir": 3874,
    "▁sudirman": 3875,
    "▁home": 3876,
    "▁hab": 3877,
    "faat": 3878,
    "▁konsumen": 3879,
    "jangan": 3880,
    "▁kelapa": 3881,
    "▁diragukan": 3883,
    "resi": 3884,
    "▁tergantung": 3885,
    "▁memanggil": 3886,
    "▁13": 3887,
    "edel": 3888,
    "▁berisik": 3889,
    "▁kasar": 3890,
    "▁view": 3891,
    "▁jumat": 3892,
    "▁kerl": 3893,
    "▁balkon": 3894,
    "▁av": 3895,
    "can": 3896,
    "▁pemesanan": 3897,
    "▁et": 3898,
    "▁giliran": 3899,
    "iringi": 3900,
    "▁delici": 3901,
    "▁terkadang": 3902,
    "arta": 3903,
    "▁of": 3904,
    "ampai": 3905,
    "▁bekas": 3906,
    "▁progo": 3907,
    "▁uduk": 3908,
    "▁hak": 3909,
    "▁ef": 3910,
    "▁bernuansa": 3911,
    "▁dinding": 3912,
    "▁waitress": 3913,
    "atangi": 3914,
    "▁sebetul": 3915,
    "▁sebetulnya": 3916,
    "▁wag": 3917,
    "▁wagyu": 3918,
    "indari": 3919,
    "▁gimana": 3920,
    "▁instan": 3921,
    "▁usus": 3922,
    "▁komplain": 3923,
    "▁nu": 3924,
    "▁lengko": 3925,
    "▁ria": 3926,
    "▁mag": 3927,
    "▁lar": 3928,
    "▁rah": 3929,
    "▁keped": 3930,
    "ilangkan": 3931,
    "otak": 3932,
    "▁one": 3933,
    "▁pembuka": 3934,
    "▁dengar": 3935,
    "▁pacaran": 3936,
    "▁kekini": 3937,
    "▁kekinian": 3938,
    "entak": 3939,
    "▁ketempat": 3940,
    "▁belok": 3941,
    "▁kombinasi": 3942,
    "ase": 3943,
    "▁thai": 3944,
    "▁gado": 3945,
    "ich": 3946,
    "ula": 3947,
    "▁terbuat": 3948,
    "▁facewith": 3949,
    "▁facewithte": 3950,
    "▁facewithtear": 3951,
    "▁facewithtearso": 3952,
    "▁facewithtearsof": 3953,
    "▁facewithtearsofjoy": 3954,
    "▁patung": 3955,
    "▁empal": 3956,
    "▁kelakuan": 3957,
    "▁boc": 3958,
    "▁maksimal": 3959,
    "▁sinilah": 3960,
    "▁fest": 3961,
    "vis": 3962,
    "▁congo": 3963,
    "▁muh": 3964,
    "▁ka": 3965,
    "▁perp": 3966,
    "▁baked": 3967,
    "▁dibayar": 3968,
    "▁tepi": 3969,
    "▁mendengar": 3970,
    "orsi": 3971,
    "▁kapok": 3972,
    "ahun": 3973,
    "▁sumat": 3974,
    "▁setiabudhi": 3975,
    "ard": 3976,
    "▁beri": 3977,
    "▁tomat": 3978,
    "▁double": 3979,
    "osi": 3980,
    "ect": 3981,
    "▁nyata": 3982,
    "▁abu": 3983,
    "▁jur": 3984,
    "▁abang": 3985,
    "▁dp": 3986,
    "▁gos": 3987,
    "sek": 3988,
    "▁qu": 3989,
    "▁video": 3990,
    "▁beras": 3991,
    "▁pengguna": 3992,
    "ainkan": 3993,
    "▁tercinta": 3994,
    "▁ret": 3995,
    "▁menyam": 3996,
    "▁keber": 3997,
    "▁diambil": 3998,
    "otes": 3999,
    "▁diganti": 4000,
    "onde": 4001,
    "ieq": 4002,
    "▁persi": 4003,
    "▁con": 4004,
    "ce": 4005,
    "▁oli": 4006,
    "▁sms": 4007,
    "emui": 4008,
    "vitas": 4009,
    "▁hanam": 4010,
    "▁hanamasa": 4011,
    "▁mengusung": 4012,
    "▁temb": 4013,
    "▁list": 4014,
    "▁listrik": 4015,
    "▁tawarkan": 4017,
    "tiwa": 4018,
    "▁milksh": 4019,
    "▁fri": 4020,
    "▁tis": 4021,
    "kue": 4022,
    "angatkan": 4023,
    "▁gopay": 4024,
    "▁mente": 4025,
    "▁mentega": 4026,
    "▁mampu": 4027,
    "▁sudut": 4028,
    "▁perempatan": 4029,
    "▁atmosfir": 4030,
    "▁sandiaga": 4031,
    "▁uno": 4032,
    "▁factory": 4033,
    "pir": 4034,
    "▁priv": 4035,
    "▁peralatan": 4036,
    "▁cendol": 4037,
    "▁laut": 4038,
    "akt": 4039,
    "emil": 4040,
    "▁vi": 4041,
    "▁sport": 4042,
    "▁reuni": 4043,
    "▁jumb": 4044,
    "▁jumbo": 4045,
    "▁dibungkus": 4046,
    "▁len": 4047,
    "▁berlibur": 4048,
    "bon": 4049,
    "barang": 4050,
    "▁murahan": 4051,
    "▁semalam": 4052,
    "eti": 4053,
    "▁bistro": 4054,
    "untung": 4055,
    "▁ui": 4056,
    "▁raj": 4057,
    "▁mengganti": 4058,
    "ayangkan": 4059,
    "ven": 4060,
    "awal": 4061,
    "▁kod": 4062,
    "▁dok": 4063,
    "unjukkan": 4064,
    "▁pekerja": 4065,
    "▁apple": 4066,
    "▁amin": 4067,
    "▁paru": 4068,
    "▁gener": 4069,
    "▁gej": 4070,
    "▁cost": 4071,
    "▁kontr": 4072,
    "▁desember": 4073,
    "▁perkedel": 4074,
    "▁tersaji": 4075,
    "▁km": 4076,
    "▁berminyak": 4077,
    "▁pengk": 4078,
    "▁ajaran": 4079,
    "▁mengetahui": 4080,
    "edang": 4081,
    "▁bajingan": 4082,
    "▁simpel": 4083,
    "▁impor": 4084,
    "▁nen": 4085,
    "jaran": 4086,
    "▁cagub": 4087,
    "▁jan": 4088,
    "▁gula": 4089,
    "▁banj": 4090,
    "▁legenda": 4091,
    "▁muham": 4092,
    "▁bakmie": 4093,
    "iar": 4094,
    "▁kekuasaan": 4095,
    "▁luk": 4096,
    "top": 4097,
    "hatikan": 4098,
    "▁jaman": 4099,
    "▁resmi": 4100,
    "▁sin": 4101,
    "▁penampilan": 4102,
    "▁asian": 4103,
    "▁disantap": 4104,
    "▁memad": 4105,
    "▁tot": 4106,
    "▁lumpia": 4107,
    "▁mengaku": 4108,
    "▁penikmat": 4109,
    "▁menghina": 4110,
    "▁dipadu": 4111,
    "all": 4112,
    "▁aktif": 4113,
    "▁grill": 4114,
    "▁uu": 4115,
    "onsep": 4116,
    "hari": 4117,
    "▁natural": 4118,
    "▁sebut": 4119,
    "jen": 4120,
    "▁jatim": 4121,
    "▁emosi": 4122,
    "▁nga": 4123,
    "▁pemain": 4124,
    "▁petik": 4125,
    "▁sarang": 4126,
    "inn": 4127,
    "▁pik": 4128,
    "▁tokoh": 4129,
    "▁singk": 4130,
    "▁goc": 4131,
    "▁pemp": 4132,
    "▁brav": 4133,
    "▁bravo": 4134,
    "inggi": 4135,
    "▁minus": 4136,
    "indak": 4137,
    "eluarkan": 4138,
    "▁hap": 4139,
    "▁yus": 4140,
    "▁cris": 4141,
    "▁kubu": 4142,
    "aim": 4143,
    "embalikan": 4144,
    "▁mei": 4145,
    "▁kont": 4146,
    "argai": 4147,
    "▁60": 4148,
    "▁kerap": 4149,
    "ericik": 4150,
    "itaran": 4151,
    "▁ditingkatkan": 4152,
    "ity": 4153,
    "▁ronde": 4154,
    "▁habib": 4155,
    "▁rizieq": 4156,
    "▁sumb": 4157,
    "rian": 4158,
    "▁open": 4159,
    "▁pelajar": 4160,
    "irkan": 4161,
    "unjang": 4162,
    "▁kenyamanan": 4163,
    "▁disuruh": 4164,
    "▁bone": 4165,
    "▁milkshake": 4166,
    "▁pastikan": 4167,
    "▁pub": 4168,
    "ris": 4169,
    "▁alot": 4170,
    "▁clas": 4171,
    "▁juicy": 4172,
    "▁perd": 4173,
    "▁perl": 4174,
    "▁rawon": 4175,
    "▁dew": 4176,
    "▁demikian": 4177,
    "▁pkb": 4178,
    "▁terasi": 4179,
    "ersihkan": 4180,
    "▁delicious": 4181,
    "▁service": 4182,
    "▁self": 4183,
    "▁membosan": 4184,
    "▁membosankan": 4185,
    "afia": 4186,
    "▁eg": 4187,
    "▁teriak": 4188,
    "▁nge": 4189,
    "ere": 4190,
    "vers": 4191,
    "▁menawan": 4192,
    "▁lux": 4193,
    "▁carbon": 4194,
    "▁carbonara": 4195,
    "▁kebon": 4196,
    "▁lawan": 4197,
    "▁tersebar": 4198,
    "oli": 4199,
    "▁tarif": 4200,
    "▁suharti": 4201,
    "▁samsung": 4202,
    "port": 4203,
    "▁end": 4204,
    "ech": 4205,
    "▁gelar": 4206,
    "▁rokok": 4207,
    "embang": 4208,
    "ret": 4209,
    "ays": 4210,
    "▁ampun": 4211,
    "ason": 4212,
    "▁cib": 4213,
    "▁dipr": 4214,
    "▁kolonial": 4215,
    "▁melepas": 4216,
    "▁sekian": 4217,
    "▁kesempatan": 4218,
    "▁kecepatan": 4219,
    "▁kejak": 4220,
    "▁kejaksa": 4221,
    "▁kejaksaan": 4222,
    "▁kucing": 4223,
    "rama": 4224,
    "▁nang": 4225,
    "▁rad": 4226,
    "▁mengalir": 4227,
    "▁enaklah": 4228,
    "▁bor": 4229,
    "▁premi": 4230,
    "▁penak": 4231,
    "▁penakut": 4232,
    "▁siapapun": 4233,
    "▁kebagian": 4234,
    "▁cekatan": 4235,
    "▁perbaikan": 4236,
    "▁bertahan": 4237,
    "▁terawat": 4238,
    "▁twitter": 4239,
    "▁semi": 4240,
    "▁cupu": 4241,
    "▁sersan": 4242,
    "▁bajuri": 4243,
    "▁berhubung": 4244,
    "▁kip": 4245,
    "▁jaket": 4246,
    "▁versi": 4247,
    "▁festiv": 4248,
    "▁festival": 4249,
    "▁tangk": 4250,
    "wab": 4251,
    "▁miliar": 4252,
    "▁gro": 4253,
    "▁blok": 4254,
    "ejo": 4255,
    "▁ketum": 4256,
    "▁ruko": 4257,
    "agang": 4258,
    "sb": 4259,
    "▁pemilih": 4260,
    "▁lada": 4261,
    "namen": 4262,
    "▁yen": 4263,
    "oll": 4264,
    "▁demo": 4265,
    "▁beres": 4266,
    "▁45": 4267,
    "▁hotpl": 4268,
    "▁kerjaan": 4269,
    "pol": 4270,
    "▁antik": 4271,
    "atis": 4272,
    "▁total": 4273,
    "▁matahari": 4274,
    "hands": 4275,
    "▁exc": 4276,
    "▁puyuh": 4277,
    "asional": 4278,
    "▁oreo": 4279,
    "▁haram": 4280,
    "▁travelok": 4281,
    "▁traveloka": 4282,
    "kw": 4283,
    "jah": 4284,
    "▁ly": 4285,
    "ito": 4286,
    "▁hobi": 4287,
    "▁berkonsep": 4288,
    "▁momen": 4289,
    "▁terbayarkan": 4290,
    "▁mix": 4291,
    "▁ngomong": 4292,
    "▁betaw": 4293,
    "▁betawi": 4294,
    "▁kampungan": 4295,
    "amah": 4296,
    "▁keun": 4297,
    "▁memimpin": 4298,
    "▁iklan": 4299,
    "▁mengerti": 4300,
    "▁maksud": 4301,
    "ingfacewith": 4302,
    "▁mencuri": 4303,
    "▁gorengan": 4304,
    "hing": 4305,
    "▁tad": 4306,
    "▁serius": 4307,
    "elaskan": 4308,
    "ekatan": 4309,
    "▁menyatu": 4310,
    "▁laya": 4311,
    "▁layar": 4312,
    "▁ciumb": 4313,
    "▁pejabat": 4314,
    "▁buff": 4315,
    "▁beral": 4316,
    "▁crispy": 4317,
    "▁jabar": 4318,
    "▁sea": 4319,
    "▁fir": 4320,
    "▁said": 4321,
    "▁negatif": 4322,
    "▁gemericik": 4323,
    "▁pendamping": 4324,
    "▁kaliki": 4325,
    "▁status": 4326,
    "▁perbeda": 4327,
    "▁perbedaan": 4328,
    "▁coffee": 4329,
    "zah": 4330,
    "caya": 4331,
    "▁didapatkan": 4332,
    "▁den": 4333,
    "▁baiknya": 4334,
    "▁bakalan": 4335,
    "▁turis": 4336,
    "▁raos": 4337,
    "▁staff": 4338,
    "▁ditemui": 4339,
    "atur": 4340,
    "▁cuc": 4341,
    "isaran": 4342,
    "hal": 4343,
    "▁koruptor": 4344,
    "▁niat": 4345,
    "impah": 4346,
    "ren": 4347,
    "▁ros": 4348,
    "▁menyus": 4349,
    "▁aksi": 4350,
    "upat": 4351,
    "▁bolu": 4352,
    "ukus": 4353,
    "▁masjid": 4354,
    "▁dengk": 4355,
    "ment": 4356,
    "pirasi": 4357,
    "ock": 4358,
    "▁ekor": 4359,
    "angit": 4360,
    "▁ungk": 4361,
    "▁ketiga": 4362,
    "▁square": 4363,
    "▁hadir": 4364,
    "▁keput": 4365,
    "▁keputusan": 4366,
    "▁khawat": 4367,
    "▁khawatir": 4368,
    "▁inti": 4369,
    "▁mafia": 4370,
    "▁maul": 4371,
    "▁disi": 4372,
    "ianat": 4373,
    "▁menanjak": 4374,
    "▁ampela": 4375,
    "ury": 4376,
    "▁puj": 4377,
    "ungkan": 4378,
    "▁bolehlah": 4379,
    "▁nampak": 4380,
    "unda": 4381,
    "ungsi": 4382,
    "▁dipan": 4383,
    "▁sn": 4384,
    "ze": 4385,
    "▁diusung": 4386,
    "▁peduli": 4387,
    "ras": 4388,
    "▁diah": 4389,
    "▁sd": 4390,
    "▁prima": 4391,
    "▁fam": 4392,
    "▁garam": 4393,
    "▁led": 4394,
    "▁berkes": 4395,
    "▁berkesempatan": 4396,
    "▁mengisi": 4397,
    "▁dimalam": 4398,
    "▁don": 4399,
    "▁bernama": 4400,
    "yo": 4401,
    "▁menghilangkan": 4402,
    "▁menanyakan": 4403,
    "▁waff": 4404,
    "▁juanda": 4405,
    "▁char": 4406,
    "epuk": 4407,
    "▁gejrot": 4408,
    "▁sec": 4409,
    "elilingi": 4410,
    "▁membaca": 4411,
    "▁med": 4412,
    "ion": 4413,
    "uaikan": 4414,
    "▁perminta": 4415,
    "▁27": 4416,
    "▁kenyata": 4417,
    "▁kenyataan": 4418,
    "▁ganggu": 4419,
    "▁cor": 4420,
    "▁bbq": 4421,
    "▁penat": 4422,
    "▁segitu": 4423,
    "tari": 4424,
    "▁bersaing": 4425,
    "▁rencana": 4426,
    "▁nenek": 4427,
    "▁berhenti": 4428,
    "▁prestasi": 4429,
    "▁januari": 4430,
    "▁butter": 4431,
    "▁pang": 4432,
    "▁menunjukkan": 4433,
    "▁perbuk": 4434,
    "▁perbukitan": 4435,
    "▁ribs": 4436,
    "osisi": 4437,
    "▁komunis": 4438,
    "▁jaya": 4439,
    "▁pedagang": 4440,
    "▁ornamen": 4441,
    "▁kud": 4442,
    "ost": 4443,
    "▁tertata": 4444,
    "▁hejo": 4445,
    "ewatkan": 4446,
    "▁juli": 4447,
    "▁hotplate": 4448,
    "▁pura": 4449,
    "▁sebentar": 4450,
    "aa": 4451,
    "▁pintar": 4452,
    "▁kebij": 4453,
    "▁kebijakan": 4454,
    "▁kala": 4455,
    "lak": 4456,
    "idak": 4457,
    "▁refill": 4458,
    "ekat": 4459,
    "▁internasional": 4460,
    "▁banjir": 4461,
    "▁mor": 4462,
    "▁damai": 4463,
    "▁mengganggu": 4464,
    "▁seporsi": 4465,
    "▁dipenuhi": 4466,
    "gaan": 4467,
    "uhut": 4468,
    "▁ijo": 4469,
    "▁parit": 4470,
    "▁sewa": 4471,
    "ebook": 4472,
    "esel": 4473,
    "▁sumatera": 4474,
    "▁lych": 4475,
    "▁hubungan": 4476,
    "▁bersy": 4477,
    "▁bersyukur": 4478,
    "▁menemp": 4479,
    "▁lepas": 4480,
    "do": 4481,
    "▁nyamuk": 4482,
    "▁kah": 4483,
    "▁favour": 4484,
    "▁bervariatif": 4485,
    "▁resi": 4486,
    "satunya": 4487,
    "▁koc": 4488,
    "▁keunikan": 4489,
    "▁berarti": 4490,
    "▁pancas": 4491,
    "▁pancasila": 4492,
    "▁lamb": 4493,
    "▁juragan": 4494,
    "▁gam": 4495,
    "▁keliling": 4496,
    "rika": 4497,
    "reasi": 4498,
    "▁hol": 4499,
    "▁som": 4500,
    "▁hel": 4501,
    "▁makny": 4502,
    "▁und": 4503,
    "▁jemb": 4504,
    "▁jembatan": 4505,
    "▁sekeliling": 4506,
    "▁tadinya": 4507,
    "▁relax": 4508,
    "▁pinter": 4509,
    "euit": 4510,
    "▁dibantu": 4511,
    "▁bot": 4512,
    "▁pecat": 4513,
    "▁terhormat": 4514,
    "▁rindu": 4515,
    "▁mempert": 4516,
    "▁bantuan": 4517,
    "▁cim": 4518,
    "ade": 4519,
    "auhan": 4520,
    "▁cake": 4521,
    "▁ha": 4522,
    "ega": 4523,
    "▁rezim": 4524,
    "▁dibiarkan": 4525,
    "lio": 4526,
    "▁komik": 4527,
    "▁week": 4528,
    "▁jaga": 4529,
    "astikan": 4530,
    "urn": 4531,
    "▁berangkat": 4532,
    "▁cac": 4533,
    "▁gas": 4534,
    "chen": 4535,
    "▁kejutan": 4536,
    "▁datangi": 4537,
    "▁alp": 4538,
    "▁bubar": 4539,
    "▁2x": 4540,
    "▁bela": 4541,
    "▁memenuhi": 4542,
    "▁ars": 4543,
    "erai": 4544,
    "ahi": 4545,
    "▁usung": 4546,
    "▁dedi": 4547,
    "▁kele": 4548,
    "▁kelez": 4549,
    "▁kelezatan": 4550,
    "tle": 4551,
    "unch": 4552,
    "besar": 4553,
    "▁diiringi": 4554,
    "▁lip": 4555,
    "▁cipag": 4556,
    "▁cipaganti": 4557,
    "▁coffe": 4558,
    "lon": 4559,
    "ologi": 4560,
    "▁ketahuan": 4561,
    "▁angkot": 4562,
    "iny": 4563,
    "▁markot": 4564,
    "▁markotop": 4565,
    "▁perasaan": 4566,
    "oro": 4567,
    "▁japanese": 4568,
    "▁lalap": 4569,
    "▁bersiap": 4570,
    "▁dipangg": 4571,
    "▁wa": 4573,
    "▁rat": 4574,
    "▁bri": 4575,
    "restoran": 4576,
    "▁pernikahan": 4577,
    "bas": 4578,
    "▁ted": 4579,
    "uatu": 4580,
    "own": 4581,
    "▁seharga": 4582,
    "▁sejenak": 4583,
    "▁pauk": 4584,
    "▁waffle": 4585,
    "▁generasi": 4586,
    "▁milk": 4587,
    "jok": 4588,
    "dha": 4589,
    "takan": 4590,
    "▁nangis": 4591,
    "▁profesi": 4592,
    "▁nomer": 4593,
    "▁permintaan": 4594,
    "oyek": 4595,
    "▁radikal": 4596,
    "▁serentak": 4597,
    "engkap": 4598,
    "▁tebu": 4599,
    "▁kematangan": 4600,
    "▁cerd": 4601,
    "▁chef": 4602,
    "▁berbagi": 4603,
    "▁time": 4604,
    "▁premium": 4605,
    "▁tahan": 4606,
    "▁dak": 4607,
    "▁tanggap": 4608,
    "▁garut": 4609,
    "▁gudeg": 4610,
    "kec": 4611,
    "▁hadori": 4612,
    "▁inginkan": 4613,
    "▁gat": 4614,
    "▁jah": 4615,
    "▁rupanya": 4616,
    "▁deb": 4617,
    "xi": 4618,
    "▁yakni": 4619,
    "▁membuka": 4620,
    "hu": 4621,
    "▁cel": 4622,
    "▁madtari": 4623,
    "▁suku": 4624,
    "andingan": 4625,
    "▁diser": 4626,
    "▁aparat": 4627,
    "▁sapo": 4628,
    "▁vir": 4629,
    "▁hib": 4630,
    "▁za": 4631,
    "▁fakta": 4632,
    "visor": 4633,
    "▁mengus": 4634,
    "▁zupa": 4635,
    "▁bernostalgia": 4636,
    "▁diant": 4637,
    "▁muhammad": 4638,
    "▁admin": 4639,
    "tipu": 4640,
    "lihat": 4641,
    "▁naf": 4642,
    "▁teror": 4643,
    "▁lukisan": 4644,
    "yal": 4645,
    "▁dipati": 4646,
    "▁diwas": 4647,
    "▁diwaspad": 4648,
    "▁diwaspadai": 4649,
    "▁dukungan": 4650,
    "ipu": 4651,
    "wich": 4652,
    "▁polri": 4653,
    "apres": 4654,
    "▁resep": 4655,
    "▁gram": 4656,
    "▁otom": 4657,
    "▁stop": 4658,
    "▁surve": 4659,
    "▁kumuh": 4660,
    "▁ganj": 4661,
    "food": 4662,
    "edar": 4663,
    "▁deras": 4664,
    "▁perbel": 4665,
    "▁keco": 4666,
    "▁domba": 4668,
    "▁det": 4669,
    "▁facebook": 4670,
    "▁dend": 4671,
    "▁jadilah": 4672,
    "▁lychee": 4673,
    "▁kabar": 4674,
    "▁lemak": 4675,
    "▁000": 4676,
    "ker": 4677,
    "▁teringat": 4678,
    "▁08": 4679,
    "▁memetik": 4680,
    "▁presentasi": 4681,
    "adilan": 4682,
    "ongkok": 4683,
    "▁tangkap": 4684,
    "▁basi": 4685,
    "▁big": 4686,
    "▁xl": 4687,
    "obot": 4688,
    "▁diak": 4689,
    "▁komisi": 4690,
    "▁tala": 4691,
    "▁talaga": 4692,
    "▁bawal": 4693,
    "▁rekreasi": 4694,
    "▁maknyus": 4695,
    "▁juni": 4696,
    "▁amanda": 4697,
    "▁hadi": 4698,
    "ube": 4699,
    "rov": 4700,
    "▁disuguhi": 4701,
    "▁kw": 4702,
    "alon": 4703,
    "tus": 4704,
    "cha": 4705,
    "yet": 4706,
    "▁tipu": 4707,
    "uleuit": 4708,
    "▁dataran": 4709,
    "▁buffet": 4710,
    "▁klaim": 4711,
    "▁villa": 4712,
    "▁olah": 4713,
    "▁sekitaran": 4714,
    "▁berant": 4715,
    "▁pengan": 4716,
    "▁bersebelah": 4717,
    "▁bersebelahan": 4718,
    "▁protes": 4719,
    "▁prim": 4720,
    "▁semarang": 4721,
    "▁sept": 4722,
    "▁september": 4723,
    "▁memandang": 4724,
    "umur": 4725,
    "▁misal": 4726,
    "des": 4727,
    "▁aglio": 4728,
    "▁long": 4729,
    "▁cucu": 4730,
    "▁kisaran": 4731,
    "light": 4732,
    "angkah": 4733,
    "kumpul": 4734,
    "▁new": 4735,
    "▁ic": 4736,
    "▁peris": 4737,
    "▁peristiwa": 4738,
    "▁eleg": 4739,
    "inggalkan": 4740,
    "umpang": 4741,
    "▁tungg": 4742,
    "▁harum": 4743,
    "ekar": 4744,
    "▁kuno": 4745,
    "▁roast": 4746,
    "itek": 4747,
    "eral": 4748,
    "▁bersatu": 4749,
    "▁lanjut": 4750,
    "▁balita": 4751,
    "▁cash": 4752,
    "▁kemah": 4753,
    "▁mang": 4754,
    "▁minimalis": 4755,
    "ko": 4756,
    "▁seminggu": 4757,
    "▁tutug": 4758,
    "oth": 4759,
    "▁aktivitas": 4760,
    "▁berwisata": 4761,
    "ace": 4762,
    "▁nas": 4763,
    "▁latar": 4764,
    "▁citra": 4765,
    "▁maulana": 4766,
    "▁ngemil": 4767,
    "rut": 4768,
    "▁udon": 4769,
    "▁penerangan": 4770,
    "▁recomm": 4771,
    "▁lunak": 4772,
    "▁lift": 4773,
    "▁pikiran": 4774,
    "▁koneksi": 4775,
    "▁layaknya": 4776,
    "▁ati": 4777,
    "▁luxury": 4778,
    "▁brand": 4779,
    "▁off": 4780,
    "▁sesak": 4781,
    "▁perayaan": 4782,
    "ekor": 4783,
    "▁sejarah": 4784,
    "▁peda": 4785,
    "▁negri": 4786,
    "uktur": 4787,
    "▁manag": 4788,
    "mark": 4789,
    "▁beruntung": 4790,
    "edah": 4791,
    "▁gule": 4792,
    "▁98": 4793,
    "▁shake": 4794,
    "▁balok": 4795,
    "▁sky": 4796,
    "antikan": 4797,
    "▁disayangkan": 4798,
    "▁remang": 4799,
    "astis": 4800,
    "▁peranakan": 4801,
    "▁pekerjaan": 4802,
    "▁elek": 4803,
    "▁santapan": 4805,
    "▁nostalgia": 4806,
    "▁kompet": 4807,
    "▁sesuatu": 4808,
    "▁thail": 4809,
    "▁thailand": 4810,
    "▁swike": 4811,
    "▁kepedasan": 4812,
    "▁tata": 4813,
    "enter": 4814,
    "▁nothing": 4815,
    "▁kembang": 4816,
    "▁gepuk": 4817,
    "▁dining": 4818,
    "isit": 4819,
    "kira": 4820,
    "▁terpisah": 4821,
    "atuan": 4822,
    "udahkan": 4823,
    "▁homo": 4824,
    "eme": 4825,
    "▁vegetari": 4826,
    "▁vegetarian": 4827,
    "▁lic": 4828,
    "▁sor": 4829,
    "▁toleran": 4830,
    "▁profesional": 4831,
    "▁mengalahkan": 4832,
    "rak": 4833,
    "arella": 4834,
    "▁cat": 4835,
    "▁mental": 4836,
    "▁ustad": 4837,
    "▁cerdas": 4838,
    "▁cinc": 4839,
    "▁habiskan": 4840,
    "▁wedang": 4841,
    "▁ras": 4842,
    "▁lahan": 4843,
    "▁menutup": 4844,
    "▁terbaru": 4845,
    "▁bandrek": 4846,
    "▁dianj": 4847,
    "▁dianjurkan": 4848,
    "▁cireb": 4849,
    "▁paja": 4850,
    "▁pajajaran": 4851,
    "▁rambut": 4852,
    "mat": 4853,
    "ancis": 4854,
    "▁penyewa": 4855,
    "▁pertandingan": 4856,
    "▁panggung": 4857,
    "▁kipas": 4858,
    "santai": 4859,
    "▁laki": 4860,
    "▁serayu": 4861,
    "▁anni": 4862,
    "versar": 4863,
    "uatan": 4864,
    "▁terbuk": 4865,
    "▁terbukti": 4866,
    "ring": 4867,
    "jawab": 4868,
    "antan": 4869,
    "▁28": 4870,
    "▁map": 4871,
    "▁cig": 4872,
    "unggulan": 4873,
    "▁konfir": 4874,
    "▁konfirm": 4875,
    "▁fine": 4876,
    "▁program": 4877,
    "▁populer": 4878,
    "▁sign": 4879,
    "▁lanc": 4880,
    "uban": 4881,
    "▁jendela": 4882,
    "▁hiburan": 4883,
    "▁bt": 4884,
    "▁tagihan": 4885,
    "elasan": 4886,
    "▁way": 4887,
    "▁cincang": 4888,
    "▁katakan": 4889,
    "▁memadai": 4890,
    "▁nabi": 4891,
    "hai": 4892,
    "embah": 4893,
    "▁ampe": 4894,
    "▁perbelanja": 4895,
    "▁perbelanjaan": 4896,
    "▁jagoan": 4897,
    "makanan": 4898,
    "▁diantara": 4899,
    "▁haji": 4900,
    "izi": 4901,
    "▁tenda": 4902,
    "▁plast": 4904,
    "▁plastik": 4905,
    "pn": 4906,
    "elian": 4907,
    "ikat": 4908,
    "▁market": 4909,
    "ecah": 4910,
    "▁appet": 4911,
    "bo": 4912,
    "fat": 4913,
    "eritakan": 4914,
    "▁berbuka": 4915,
    "▁petunjuk": 4916,
    "▁hahahaha": 4917,
    "▁rem": 4918,
    "▁kedatangan": 4919,
    "▁dirut": 4920,
    "▁budaya": 4921,
    "▁alm": 4922,
    "▁aw": 4923,
    "▁cas": 4924,
    "▁travel": 4925,
    "igh": 4926,
    "▁kocek": 4927,
    "▁coc": 4928,
    "▁obrol": 4929,
    "▁obrolan": 4930,
    "▁wi": 4931,
    "▁grinn": 4932,
    "eyes": 4933,
    "▁hir": 4934,
    "▁diakses": 4935,
    "▁pelac": 4936,
    "▁djarum": 4937,
    "▁kerang": 4938,
    "▁gocar": 4939,
    "▁yout": 4940,
    "▁youtube": 4941,
    "▁rutin": 4942,
    "▁cabai": 4943,
    "▁diperl": 4944,
    "▁berdekatan": 4945,
    "▁mener": 4946,
    "▁ciumbuleuit": 4947,
    "▁alunan": 4948,
    "▁real": 4949,
    "ujung": 4950,
    "▁paketan": 4951,
    "mer": 4952,
    "▁kampany": 4953,
    "▁mempertahankan": 4954,
    "▁ketinggalan": 4955,
    "▁berantakan": 4956,
    "alami": 4957,
    "▁salat": 4958,
    "▁homy": 4959,
    "nas": 4960,
    "▁menyerang": 4961,
    "▁vs": 4962,
    "inginkan": 4963,
    "entukan": 4964,
    "▁pay": 4965,
    "▁boed": 4966,
    "▁bermer": 4967,
    "▁bent": 4968,
    "ibat": 4969,
    "▁ed": 4970,
    "ando": 4971,
    "▁repot": 4972,
    "▁menyar": 4973,
    "▁menyarankan": 4974,
    "▁hiasan": 4975,
    "▁ing": 4976,
    "▁karet": 4977,
    "▁diisi": 4978,
    "ktp": 4979,
    "▁pria": 4980,
    "▁semen": 4981,
    "arakan": 4982,
    "antang": 4983,
    "▁kerlip": 4984,
    "lic": 4985,
    "bisa": 4986,
    "▁mengirim": 4987,
    "▁alamat": 4988,
    "▁coun": 4989,
    "▁pilihlah": 4990,
    "▁saldo": 4991,
    "▁tang": 4992,
    "▁tunggal": 4993,
    "baga": 4994,
    "idik": 4995,
    "▁hat": 4996,
    "▁arsitek": 4997,
    "erry": 4998,
    "▁vol": 5000,
    "▁wahid": 5001,
    "gan": 5002,
    "▁bung": 5003,
    "itkan": 5004,
    "▁redmi": 5005,
    "▁solusi": 5006,
    "▁ppp": 5007,
    "uu": 5008,
    "▁sabun": 5009,
    "▁kemahalan": 5010,
    "oni": 5011,
    "▁yogya": 5012,
    "try": 5013,
    "▁dibersihkan": 5014,
    "▁sunset": 5015,
    "▁manaj": 5016,
    "▁ditangkap": 5017,
    "▁seakan": 5018,
    "tengah": 5019,
    "ipis": 5020,
    "ilir": 5021,
    "▁mess": 5022,
    "▁seolah": 5023,
    "aturan": 5024,
    "▁perusaha": 5025,
    "▁perusahaan": 5026,
    "▁favourite": 5027,
    "▁mengadakan": 5028,
    "▁if": 5029,
    "▁sebesar": 5030,
    "▁rentang": 5031,
    "▁berkur": 5032,
    "▁cakue": 5033,
    "kas": 5034,
    "▁mega": 5035,
    "▁sebanyak": 5036,
    "banyak": 5037,
    "▁dihi": 5038,
    "bal": 5039,
    "▁dipanaskan": 5040,
    "eddy": 5041,
    "▁tusuk": 5042,
    "elih": 5043,
    "▁mendekati": 5044,
    "▁waroeng": 5045,
    "▁berulang": 5046,
    "arahkan": 5048,
    "aka": 5049,
    "▁hmmm": 5050,
    "remang": 5051,
    "kafe": 5052,
    "ergi": 5053,
    "▁teduh": 5054,
    "▁toh": 5055,
    "▁dibangun": 5056,
    "buri": 5057,
    "▁hend": 5058,
    "▁beer": 5059,
    "▁ditata": 5060,
    "▁rupa": 5061,
    "▁membangun": 5062,
    "amel": 5063,
    "pot": 5064,
    "▁berguna": 5065,
    "bir": 5066,
    "▁rose": 5067,
    "market": 5068,
    "▁buddha": 5069,
    "▁memudahkan": 5070,
    "▁cair": 5071,
    "ampus": 5072,
    "▁okok": 5073,
    "iris": 5074,
    "ilkan": 5075,
    "▁proyek": 5076,
    "▁jabatan": 5077,
    "▁mengenal": 5078,
    "▁menampung": 5079,
    "▁ms": 5080,
    "uta": 5081,
    "▁okonomi": 5082,
    "▁okonomiyaki": 5083,
    "▁isian": 5084,
    "▁kri": 5085,
    "▁kriuk": 5086,
    "▁kemasan": 5087,
    "▁tahi": 5088,
    "▁mur": 5089,
    "▁rs": 5090,
    "▁klik": 5091,
    "▁lahap": 5092,
    "▁sip": 5093,
    "▁berbohong": 5094,
    "▁rimb": 5095,
    "▁wib": 5096,
    "▁restorant": 5097,
    "sil": 5098,
    "ongkar": 5099,
    "kecil": 5100,
    "▁menjelaskan": 5101,
    "juang": 5102,
    "ulai": 5103,
    "ement": 5104,
    "▁garden": 5105,
    "▁kerapu": 5106,
    "▁sangk": 5107,
    "▁meat": 5108,
    "▁adil": 5109,
    "▁cukuplah": 5110,
    "▁guling": 5111,
    "angkir": 5112,
    "▁natal": 5113,
    "▁ledeng": 5114,
    "▁disuguhkan": 5115,
    "▁cirebon": 5116,
    "▁jor": 5117,
    "▁jorok": 5118,
    "▁capres": 5119,
    "▁cawagub": 5120,
    "▁pemilu": 5121,
    "▁disertai": 5122,
    "for": 5123,
    "▁plate": 5124,
    "adian": 5125,
    "▁anniversar": 5126,
    "▁halus": 5127,
    "▁hm": 5128,
    "▁bp": 5129,
    "▁zaadit": 5130,
    "▁berhasil": 5131,
    "▁ste": 5132,
    "▁dish": 5133,
    "oskop": 5134,
    "▁yogyak": 5135,
    "▁yogyakarta": 5136,
    "▁drama": 5137,
    "▁rus": 5138,
    "▁rute": 5139,
    "▁keunggulan": 5140,
    "▁konfirmasi": 5141,
    "eja": 5142,
    "▁dengki": 5143,
    "▁umur": 5144,
    "sion": 5145,
    "ye": 5146,
    "▁sl": 5147,
    "▁bukanlah": 5148,
    "▁diperhatikan": 5149,
    "▁sandwich": 5150,
    "▁yes": 5151,
    "▁mengundang": 5152,
    "▁mab": 5153,
    "link": 5154,
    "▁tk": 5155,
    "▁hop": 5156,
    "▁bantal": 5157,
    "▁sepatu": 5158,
    "get": 5159,
    "▁star": 5160,
    "▁temar": 5161,
    "▁temaram": 5162,
    "▁duluan": 5163,
    "anjian": 5164,
    "▁otomatis": 5165,
    "▁kantin": 5166,
    "▁toy": 5167,
    "▁obor": 5168,
    "▁puding": 5169,
    "▁dela": 5170,
    "alang": 5171,
    "▁dikenakan": 5172,
    "▁bising": 5173,
    "▁harap": 5174,
    "▁bangun": 5175,
    "▁dirumah": 5176,
    "▁memakan": 5177,
    "go": 5178,
    "▁sendok": 5179,
    "▁junc": 5180,
    "▁junction": 5181,
    "▁gemp": 5182,
    "▁wart": 5183,
    "▁warteg": 5184,
    "▁kalim": 5185,
    "▁gaji": 5186,
    "▁gl": 5187,
    "amanan": 5188,
    "egara": 5189,
    "▁photo": 5190,
    "▁29": 5191,
    "andalkan": 5192,
    "ence": 5193,
    "▁utang": 5194,
    "▁mahm": 5195,
    "▁mahmud": 5196,
    "▁mayoritas": 5197,
    "▁disiram": 5198,
    "ominasi": 5199,
    "▁crab": 5200,
    "ifah": 5201,
    "etaria": 5202,
    "nama": 5203,
    "▁pembelian": 5204,
    "▁berbahan": 5205,
    "▁spagheti": 5207,
    "▁yani": 5208,
    "▁are": 5209,
    "▁ribut": 5210,
    "▁ade": 5211,
    "▁stabil": 5212,
    "▁ipul": 5213,
    "umpai": 5214,
    "▁chees": 5215,
    "▁kemenangan": 5216,
    "▁fly": 5217,
    "mall": 5218,
    "▁ji": 5219,
    "▁abuba": 5220,
    "bah": 5221,
    "▁hiruk": 5222,
    "▁pikuk": 5223,
    "▁terkait": 5224,
    "ative": 5225,
    "▁capc": 5226,
    "▁swe": 5227,
    "▁can": 5228,
    "▁ditel": 5229,
    "oked": 5230,
    "▁asus": 5231,
    "▁pendapat": 5232,
    "ikiran": 5233,
    "▁sebulan": 5234,
    "▁agustus": 5235,
    "▁monyet": 5236,
    "▁bit": 5237,
    "▁terpenc": 5238,
    "▁ktp": 5239,
    "▁seger": 5240,
    "▁bermutu": 5241,
    "▁dikembalikan": 5242,
    "ited": 5243,
    "▁temui": 5244,
    "▁kampanye": 5245,
    "▁meter": 5246,
    "▁setara": 5247,
    "▁perub": 5248,
    "▁perubahan": 5249,
    "▁menyebut": 5250,
    "▁hamzah": 5251,
    "▁penjilat": 5252,
    "▁manfaat": 5253,
    "zel": 5254,
    "▁kolega": 5255,
    "▁boedjangan": 5256,
    "ding": 5257,
    "▁regis": 5258,
    "trasi": 5259,
    "▁weekend": 5260,
    "izer": 5261,
    "aus": 5262,
    "▁mesin": 5263,
    "▁banana": 5264,
    "▁nach": 5265,
    "▁nachos": 5266,
    "▁ec": 5267,
    "▁ges": 5268,
    "▁kitchen": 5269,
    "▁tulisan": 5270,
    "upati": 5271,
    "▁alpuk": 5272,
    "▁fried": 5273,
    "da": 5274,
    "▁renovasi": 5275,
    "▁kukus": 5276,
    "▁agung": 5277,
    "▁classi": 5278,
    "▁classic": 5279,
    "▁mineral": 5280,
    "▁baterai": 5281,
    "▁lul": 5282,
    "▁cimahi": 5283,
    "▁perang": 5284,
    "▁mengesan": 5285,
    "▁mengesankan": 5286,
    "▁menur": 5287,
    "ora": 5288,
    "asia": 5289,
    "▁kesalahan": 5290,
    "yakan": 5291,
    "back": 5292,
    "▁rasakan": 5293,
    "▁mulya": 5294,
    "▁22": 5295,
    "▁shut": 5296,
    "▁shuttle": 5297,
    "▁suci": 5298,
    "▁water": 5299,
    "▁sundan": 5300,
    "▁private": 5301,
    "▁orange": 5302,
    "▁desert": 5303,
    "▁pelayana": 5304,
    "▁tertutup": 5305,
    "▁pertim": 5306,
    "▁sudi": 5307,
    "elola": 5308,
    "▁viet": 5309,
    "▁pembohong": 5310,
    "▁recommend": 5311,
    "▁recommended": 5312,
    "▁alay": 5313,
    "allah": 5314,
    "▁bend": 5315,
    "▁az": 5316,
    "oyo": 5317,
    "▁terjebak": 5318,
    "▁puri": 5319,
    "▁samcan": 5320,
    "▁berkurang": 5321,
    "ujud": 5322,
    "idikan": 5323,
    "▁univers": 5324,
    "▁universitas": 5325,
    "yap": 5326,
    "▁bow": 5327,
    "▁pom": 5328,
    "▁kulkas": 5329,
    "▁ekonomi": 5330,
    "▁begit": 5331,
    "▁lasag": 5332,
    "▁lasagna": 5333,
    "▁alf": 5334,
    "▁provid": 5335,
    "▁provider": 5336,
    "▁mengeluarkan": 5337,
    "▁yah": 5338,
    "▁higi": 5339,
    "▁gent": 5341,
    "▁diman": 5342,
    "▁bistik": 5343,
    "▁gu": 5344,
    "▁uc": 5345,
    "▁dipert": 5346,
    "sin": 5347,
    "▁mengingatkan": 5348,
    "▁kemac": 5349,
    "▁kemacetan": 5350,
    "▁wahana": 5351,
    "▁enek": 5352,
    "▁kenikm": 5353,
    "▁kenikmatan": 5354,
    "ewan": 5355,
    "▁barisan": 5356,
    "engarkan": 5357,
    "▁jaksa": 5358,
    "▁hendak": 5359,
    "▁melimpah": 5360,
    "▁paduan": 5361,
    "▁dipad": 5362,
    "▁terbesar": 5363,
    "▁biru": 5364,
    "▁aq": 5365,
    "▁perusak": 5366,
    "▁wh": 5367,
    "▁kesul": 5368,
    "▁brat": 5369,
    "▁bratw": 5370,
    "▁bratwur": 5371,
    "▁bratwurst": 5372,
    "▁jeroan": 5373,
    "▁supermarket": 5374,
    "kant": 5375,
    "▁dikelilingi": 5376,
    "cak": 5377,
    "▁pungg": 5378,
    "ajarkan": 5379,
    "▁mampus": 5380,
    "▁laku": 5381,
    "▁dises": 5382,
    "▁bakpa": 5383,
    "▁bakpao": 5384,
    "ubungi": 5385,
    "▁americ": 5386,
    "▁king": 5387,
    "isme": 5388,
    "▁lut": 5389,
    "▁komentar": 5390,
    "▁mash": 5391,
    "▁antek": 5392,
    "▁disini": 5393,
    "▁capp": 5394,
    "▁cappuc": 5395,
    "▁berkuah": 5396,
    "▁disiapkan": 5397,
    "▁gps": 5398,
    "isip": 5399,
    "▁yun": 5400,
    "▁nyon": 5401,
    "▁nyonya": 5402,
    "▁rimbun": 5403,
    "▁merusak": 5404,
    "▁ast": 5405,
    "▁membutuhkan": 5406,
    "▁kolak": 5407,
    "▁pahit": 5408,
    "▁jahe": 5409,
    "emon": 5410,
    "▁rob": 5411,
    "▁sukai": 5412,
    "atikan": 5413,
    "panas": 5414,
    "po": 5415,
    "▁tub": 5416,
    "▁hamid": 5417,
    "uck": 5418,
    "▁cot": 5419,
    "▁cand": 5420,
    "avorit": 5421,
    "alian": 5422,
    "▁wahai": 5423,
    "enovasi": 5424,
    "sangat": 5425,
    "▁overpr": 5426,
    "otan": 5427,
    "malam": 5428,
    "key": 5429,
    "▁anniversary": 5430,
    "▁polit": 5431,
    "lus": 5432,
    "upun": 5433,
    "nongkrong": 5434,
    "alut": 5435,
    "▁terbang": 5436,
    "▁tam": 5437,
    "▁noah": 5438,
    "obati": 5439,
    "▁bertambah": 5440,
    "▁bioskop": 5441,
    "▁woi": 5442,
    "edakan": 5443,
    "abar": 5444,
    "▁kontrak": 5445,
    "▁garpu": 5446,
    "▁lancar": 5447,
    "▁laptop": 5448,
    "▁disel": 5449,
    "▁penduduk": 5450,
    "▁dadak": 5451,
    "▁dihitung": 5452,
    "▁rekening": 5453,
    "▁500": 5454,
    "▁joko": 5455,
    "onom": 5456,
    "▁pencah": 5457,
    "▁ngap": 5458,
    "▁ngapain": 5459,
    "▁see": 5460,
    "resiasi": 5461,
    "umpulan": 5462,
    "▁breb": 5463,
    "▁brebes": 5464,
    "▁berenang": 5466,
    "▁buta": 5467,
    "▁pusing": 5468,
    "▁nafsu": 5469,
    "▁fish": 5470,
    "ty": 5471,
    "olo": 5472,
    "▁melon": 5473,
    "▁toyota": 5474,
    "▁mbps": 5475,
    "asang": 5476,
    "▁katsu": 5477,
    "▁jateng": 5478,
    "▁kabur": 5479,
    "▁diproses": 5480,
    "anteng": 5481,
    "▁memerl": 5482,
    "▁memerlukan": 5483,
    "▁pertanya": 5484,
    "▁pertanyaan": 5485,
    "kawan": 5486,
    "sikan": 5487,
    "▁ganjar": 5488,
    "undur": 5489,
    "▁sialan": 5490,
    "▁kepent": 5491,
    "▁kepentingan": 5492,
    "▁pujas": 5493,
    "▁pujasera": 5494,
    "▁disek": 5495,
    "anggi": 5496,
    "▁persen": 5497,
    "unik": 5498,
    "▁obat": 5499,
    "esain": 5501,
    "▁kegi": 5502,
    "▁salam": 5503,
    "imbang": 5504,
    "▁rac": 5505,
    "▁dikira": 5506,
    "▁malays": 5507,
    "▁malaysia": 5508,
    "▁shin": 5509,
    "▁clap": 5510,
    "▁clapping": 5511,
    "▁clappinghands": 5512,
    "betul": 5513,
    "▁parpol": 5514,
    "▁kuis": 5515,
    "▁tangkuban": 5516,
    "▁detail": 5517,
    "▁sisa": 5519,
    "▁apb": 5520,
    "▁1000": 5521,
    "▁kesep": 5522,
    "▁pencuci": 5523,
    "▁nyesel": 5524,
    "▁enjoy": 5525,
    "ofifah": 5526,
    "▁kafetaria": 5527,
    "jol": 5528,
    "▁okt": 5529,
    "ober": 5530,
    "▁kamis": 5531,
    "▁dimiliki": 5532,
    "abrik": 5533,
    "▁ditambahkan": 5534,
    "▁moj": 5535,
    "inda": 5536,
    "▁sifat": 5537,
    "▁lapangan": 5538,
    "umlah": 5539,
    "atuhkan": 5540,
    "bawa": 5541,
    "▁menyug": 5542,
    "▁menyuguhkan": 5543,
    "▁wings": 5544,
    "ilis": 5545,
    "▁pinggiran": 5546,
    "▁suruh": 5547,
    "▁playg": 5548,
    "riah": 5549,
    "jualan": 5550,
    "aring": 5551,
    "▁ton": 5552,
    "▁jiwa": 5553,
    "▁grinningfacewith": 5554,
    "▁games": 5555,
    "▁capcay": 5556,
    "ru": 5557,
    "▁singkong": 5558,
    "▁judul": 5559,
    "▁mengandung": 5560,
    "▁quick": 5561,
    "▁count": 5562,
    "▁cha": 5563,
    "▁terpencil": 5564,
    "▁kece": 5565,
    "▁beralaskan": 5566,
    "▁legit": 5567,
    "▁cu": 5568,
    "▁nur": 5569,
    "ular": 5570,
    "▁menambahkan": 5571,
    "▁hous": 5572,
    "▁house": 5573,
    "▁mengalami": 5574,
    "ory": 5575,
    "▁khil": 5576,
    "▁khilaf": 5577,
    "▁bergabung": 5578,
    "elat": 5579,
    "egar": 5580,
    "▁dominan": 5581,
    "▁olio": 5582,
    "▁san": 5583,
    "▁registrasi": 5584,
    "▁straw": 5585,
    "berry": 5586,
    "▁akibat": 5587,
    "▁antrian": 5588,
    "▁appetizer": 5589,
    "ihi": 5590,
    "angkang": 5591,
    "▁ge": 5592,
    "▁tengg": 5593,
    "▁sri": 5594,
    "▁ais": 5595,
    "▁aisyah": 5596,
    "▁mentah": 5597,
    "▁alpukat": 5598,
    "▁nunggu": 5599,
    "▁biarkan": 5600,
    "▁meninggalkan": 5601,
    "isian": 5602,
    "▁kebah": 5603,
    "▁hatta": 5604,
    "shabu": 5605,
    "▁avoc": 5606,
    "▁avocado": 5607,
    "▁nor": 5608,
    "▁pri": 5609,
    "odo": 5610,
    "▁eksis": 5611,
    "▁arsitektur": 5612,
    "▁blu": 5613,
    "▁bermas": 5614,
    "▁bermasalah": 5615,
    "▁tanggung": 5616,
    "▁disukai": 5617,
    "▁anis": 5618,
    "▁kapol": 5619,
    "emis": 5620,
    "▁bolak": 5621,
    "▁note": 5622,
    "▁lampung": 5623,
    "umpuk": 5624,
    "heese": 5625,
    "irian": 5626,
    "▁koar": 5627,
    "▁gelato": 5628,
    "▁jari": 5629,
    "▁terlambat": 5630,
    "oon": 5631,
    "▁langit": 5632,
    "▁smo": 5633,
    "▁manajemen": 5634,
    "▁lob": 5635,
    "▁message": 5636,
    "iru": 5637,
    "▁keseh": 5638,
    "bangkan": 5639,
    "▁menyel": 5640,
    "▁space": 5641,
    "▁selfie": 5642,
    "▁nanas": 5643,
    "▁mera": 5644,
    "▁stres": 5645,
    "▁imam": 5646,
    "▁pengaturan": 5647,
    "▁sead": 5648,
    "▁seadanya": 5649,
    "▁sti": 5650,
    "▁kagum": 5651,
    "▁lenyap": 5652,
    "▁bermerek": 5653,
    "▁didatangi": 5654,
    "▁ajar": 5655,
    "▁sepak": 5656,
    "▁dijaga": 5657,
    "▁berpikir": 5658,
    "▁menyi": 5659,
    "▁menyiapkan": 5660,
    "anjutkan": 5661,
    "▁keingin": 5662,
    "▁higienis": 5663,
    "truktur": 5664,
    "ayat": 5665,
    "▁ratusan": 5666,
    "obak": 5667,
    "▁tanda": 5668,
    "▁tag": 5669,
    "▁pelaku": 5670,
    "▁rajam": 5671,
    "empar": 5672,
    "ajat": 5673,
    "epankan": 5674,
    "▁pasang": 5675,
    "▁reason": 5676,
    "▁kb": 5677,
    "▁enc": 5678,
    "▁lim": 5679,
    "▁comb": 5680,
    "▁ay": 5681,
    "▁hewan": 5682,
    "▁23": 5683,
    "ayi": 5684,
    "▁pesawat": 5685,
    "isk": 5686,
    "▁sch": 5687,
    "ebab": 5688,
    "▁dipadukan": 5689,
    "▁center": 5690,
    "▁caramel": 5691,
    "▁berkis": 5692,
    "▁berkisar": 5693,
    "▁sempatkan": 5694,
    "▁awet": 5695,
    "▁down": 5696,
    "load": 5697,
    "▁kesulitan": 5698,
    "▁jambal": 5699,
    "▁famili": 5700,
    "▁colokan": 5701,
    "▁terpaksa": 5702,
    "▁menyat": 5703,
    "▁menyatakan": 5704,
    "▁punggung": 5705,
    "ullah": 5706,
    "▁disesuaikan": 5707,
    "▁dico": 5708,
    "▁tind": 5709,
    "▁toleransi": 5710,
    "ampilkan": 5711,
    "udh": 5712,
    "udhoy": 5713,
    "udhoyono": 5714,
    "▁hutang": 5715,
    "▁199": 5716,
    "▁perg": 5717,
    "nt": 5718,
    "fikasi": 5719,
    "▁sod": 5720,
    "▁atmosfer": 5721,
    "▁laten": 5722,
    "▁jadikan": 5723,
    "itip": 5724,
    "▁cape": 5725,
    "▁berusaha": 5726,
    "▁efek": 5727,
    "▁ahy": 5728,
    "▁pempek": 5729,
    "▁blue": 5730,
    "isipasi": 5731,
    "aruh": 5732,
    "zer": 5733,
    "▁breng": 5734,
    "▁cincau": 5735,
    "inc": 5736,
    "▁chi": 5737,
    "▁pork": 5738,
    "▁homey": 5739,
    "▁terdengar": 5740,
    "▁tant": 5741,
    "▁bongkar": 5742,
    "erg": 5743,
    "▁pasal": 5744,
    "gado": 5745,
    "ejut": 5746,
    "anjangan": 5747,
    "▁barista": 5748,
    "▁terci": 5749,
    "▁tercium": 5750,
    "▁repres": 5751,
    "▁pengkolan": 5752,
    "▁gemb": 5753,
    "▁colenak": 5754,
    "▁atmosph": 5755,
    "▁atmosphere": 5756,
    "▁gangguan": 5757,
    "ugikan": 5758,
    "▁dipisah": 5759,
    "▁espres": 5760,
    "▁compl": 5761,
    "▁bulat": 5762,
    "ogoh": 5763,
    "▁semilir": 5764,
    "aud": 5765,
    "▁melainkan": 5766,
    "ormati": 5767,
    "insi": 5768,
    "▁ari": 5769,
    "▁gajah": 5770,
    "▁direnovasi": 5771,
    "▁wedd": 5772,
    "▁tb": 5773,
    "▁gaul": 5774,
    "▁sekalipun": 5775,
    "nn": 5776,
    "gr": 5777,
    "▁berf": 5778,
    "▁vietnam": 5779,
    "mahal": 5780,
    "▁nyawa": 5781,
    "▁dech": 5782,
    "▁selebih": 5783,
    "▁selebihnya": 5784,
    "ture": 5785,
    "▁mut": 5786,
    "▁tiada": 5787,
    "▁orderan": 5788,
    "▁toast": 5789,
    "▁oposisi": 5790,
    "▁bercengk": 5791,
    "▁bg": 5792,
    "but": 5793,
    "▁bersabar": 5794,
    "▁korban": 5795,
    "▁meman": 5796,
    "▁nyiny": 5797,
    "▁belokan": 5798,
    "▁cic": 5799,
    "▁mulyadi": 5800,
    "▁giri": 5801,
    "▁chines": 5802,
    "▁kenangan": 5803,
    "▁dibikin": 5804,
    "▁bunc": 5805,
    "omer": 5806,
    "▁tertipu": 5807,
    "kata": 5808,
    "▁sinet": 5809,
    "▁sinetron": 5810,
    "▁sumsum": 5811,
    "intas": 5812,
    "▁ekonom": 5813,
    "▁ekonomis": 5814,
    "▁zen": 5815,
    "▁kitab": 5816,
    "▁pencahayaan": 5817,
    "▁krispi": 5818,
    "▁diantar": 5819,
    "▁citylink": 5820,
    "▁dewasa": 5821,
    "udahan": 5822,
    "▁penjelasan": 5823,
    "▁semangk": 5824,
    "▁kent": 5825,
    "day": 5826,
    "▁perokok": 5827,
    "▁manta": 5828,
    "▁waras": 5829,
    "▁add": 5830,
    "usah": 5831,
    "▁jajan": 5832,
    "incang": 5833,
    "sofa": 5834,
    "▁abdul": 5835,
    "▁terdekat": 5836,
    "▁tun": 5837,
    "ev": 5838,
    "▁jadul": 5839,
    "▁mengantar": 5840,
    "▁woy": 5841,
    "▁detik": 5842,
    "amakan": 5843,
    "▁wajah": 5844,
    "sen": 5845,
    "▁terisi": 5846,
    "▁minimum": 5847,
    "▁bangetlah": 5848,
    "tan": 5849,
    "▁hitung": 5850,
    "edot": 5851,
    "▁roll": 5852,
    "▁responsi": 5853,
    "▁responsif": 5854,
    "▁menghal": 5856,
    "▁eksot": 5857,
    "▁banci": 5858,
    "umbui": 5859,
    "▁pengaw": 5860,
    "▁menulis": 5861,
    "▁pssi": 5862,
    "▁didesain": 5863,
    "▁menonj": 5865,
    "▁menonjol": 5866,
    "▁putri": 5867,
    "▁terlupakan": 5868,
    "▁mama": 5869,
    "▁kegiatan": 5870,
    "▁meyak": 5871,
    "▁kagak": 5872,
    "▁khofifah": 5873,
    "▁inv": 5874,
    "▁menganggap": 5875,
    "▁buru": 5876,
    "▁oktober": 5877,
    "▁tomb": 5878,
    "▁cigan": 5879,
    "▁ciganea": 5880,
    "▁lewatkan": 5881,
    "oka": 5882,
    "▁pecah": 5883,
    "▁duh": 5884,
    "▁menempel": 5885,
    "▁pasukan": 5886,
    "▁kakek": 5887,
    "▁auth": 5888,
    "▁authenti": 5889,
    "▁authentic": 5890,
    "▁cil": 5891,
    "▁sereh": 5892,
    "num": 5893,
    "▁smoking": 5894,
    "▁menjatuhkan": 5895,
    "▁kapas": 5896,
    "ebaran": 5897,
    "put": 5898,
    "▁playgro": 5899,
    "▁playground": 5900,
    "▁fox": 5901,
    "▁hum": 5902,
    "amaan": 5903,
    "▁keadilan": 5904,
    "▁singapura": 5905,
    "▁tiongkok": 5906,
    "▁empat": 5907,
    "▁ngumpul": 5908,
    "▁jon": 5909,
    "▁berpas": 5910,
    "▁pid": 5911,
    "▁pidato": 5912,
    "▁gosend": 5913,
    "▁wong": 5914,
    "▁unggul": 5915,
    "▁buni": 5916,
    "▁berasal": 5917,
    "▁rutinitas": 5918,
    "▁angkutan": 5919,
    "▁pelit": 5920,
    "▁penilai": 5921,
    "▁penilaian": 5922,
    "▁dipo": 5923,
    "▁paha": 5924,
    "▁belakangan": 5925,
    "atasan": 5926,
    "▁debat": 5927,
    "osok": 5928,
    "▁jati": 5929,
    "▁02": 5930,
    "▁fa": 5931,
    "▁mengag": 5932,
    "▁khilafah": 5933,
    "▁gerim": 5934,
    "▁gerimis": 5935,
    "▁dipercaya": 5936,
    "iksi": 5937,
    "▁cokelat": 5938,
    "▁seumur": 5939,
    "▁payung": 5940,
    "▁sad": 5941,
    "▁cc": 5942,
    "akaran": 5943,
    "▁pakaian": 5944,
    "▁rh": 5945,
    "▁rais": 5946,
    "▁eror": 5947,
    "▁lec": 5948,
    "▁mengurangi": 5949,
    "▁pertam": 5950,
    "▁kesimp": 5951,
    "▁kesimpulan": 5952,
    "ely": 5953,
    "▁disod": 5954,
    "▁memastikan": 5955,
    "▁pecundang": 5956,
    "▁sangg": 5957,
    "zing": 5958,
    "▁rum": 5959,
    "▁putus": 5960,
    "▁berikan": 5961,
    "▁gosong": 5962,
    "▁grand": 5963,
    "tra": 5964,
    "ajang": 5965,
    "wangi": 5966,
    "▁server": 5967,
    "▁dihangatkan": 5968,
    "ary": 5969,
    "▁soekar": 5970,
    "▁bil": 5971,
    "▁botol": 5972,
    "▁kerat": 5973,
    "▁roh": 5974,
    "▁sesama": 5975,
    "▁dibel": 5976,
    "enj": 5977,
    "aht": 5978,
    "▁ditemp": 5979,
    "▁menurun": 5980,
    "▁tanyakan": 5981,
    "▁richeese": 5982,
    "lar": 5983,
    "▁membayangkan": 5984,
    "▁suguhan": 5985,
    "▁sopir": 5986,
    "▁dipimpin": 5987,
    "▁anal": 5988,
    "itional": 5989,
    "sampai": 5990,
    "arapkan": 5991,
    "▁kerabat": 5992,
    "aktir": 5993,
    "▁aloi": 5994,
    "▁melel": 5995,
    "▁meleleh": 5996,
    "▁belah": 5997,
    "▁subuh": 5998,
    "▁bangkrut": 5999,
    "ann": 6000,
    "▁visi": 6001,
    "▁won": 6002,
    "iter": 6003,
    "▁jangkau": 6004,
    "▁zup": 6005,
    "▁gerbang": 6006,
    "▁politikus": 6007,
    "▁bowl": 6008,
    "▁batik": 6009,
    "▁menyang": 6010,
    "▁lembaga": 6011,
    "▁curi": 6012,
    "▁boneka": 6013,
    "▁blackp": 6014,
    "▁tersisa": 6015,
    "▁menghindari": 6016,
    "▁ven": 6017,
    "aria": 6018,
    "▁keinginan": 6019,
    "▁pengen": 6020,
    "▁banda": 6021,
    "▁ditolak": 6022,
    "▁ditunggu": 6023,
    "▁berman": 6024,
    "▁pastry": 6025,
    "▁iseng": 6026,
    "qu": 6027,
    "▁burg": 6028,
    "▁monas": 6029,
    "obat": 6030,
    "▁diarahkan": 6031,
    "▁reserv": 6032,
    "▁ikuti": 6033,
    "▁infras": 6034,
    "▁infrastruktur": 6035,
    "▁tanggapan": 6036,
    "▁kampret": 6037,
    "▁menged": 6038,
    "▁golden": 6039,
    "▁price": 6040,
    "▁pricey": 6041,
    "▁ekst": 6042,
    "▁pengganti": 6043,
    "▁reasonable": 6044,
    "ohan": 6045,
    "▁disimp": 6046,
    "▁mango": 6047,
    "atik": 6048,
    "▁kodok": 6049,
    "▁mengas": 6050,
    "rah": 6051,
    "▁skywalk": 6052,
    "▁dadar": 6053,
    "▁terbakar": 6054,
    "▁makas": 6055,
    "▁antusi": 6056,
    "▁antusias": 6057,
    "nai": 6058,
    "▁palsu": 6059,
    "▁dihad": 6060,
    "▁fant": 6061,
    "▁rahasia": 6062,
    "bayang": 6063,
    "▁disebelah": 6064,
    "▁shopping": 6065,
    "ede": 6066,
    "▁bawaan": 6067,
    "son": 6068,
    "▁sent": 6069,
    "▁familiar": 6070,
    "▁def": 6071,
    "▁ceng": 6072,
    "▁puncak": 6073,
    "enam": 6074,
    "▁diiris": 6075,
    "▁nant": 6076,
    "▁nantinya": 6077,
    "▁ajang": 6078,
    "▁tenggelam": 6079,
    "teriak": 6080,
    "▁meneg": 6081,
    "▁ca": 6082,
    "▁diperiksa": 6083,
    "▁lutung": 6084,
    "▁jengkel": 6085,
    "▁pelengkap": 6086,
    "indungi": 6087,
    "▁ilm": 6088,
    "▁cet": 6089,
    "▁cetek": 6090,
    "▁diga": 6091,
    "▁menghadapi": 6092,
    "▁sudr": 6093,
    "▁brengsek": 6094,
    "ken": 6095,
    "▁keburu": 6096,
    "▁standarlah": 6097,
    "asti": 6098,
    "▁korn": 6099,
    "▁transport": 6100,
    "▁berist": 6101,
    "▁bandara": 6102,
    "▁pembeli": 6103,
    "▁pulau": 6104,
    "ancurkan": 6105,
    "hianat": 6106,
    "▁sidang": 6107,
    "▁dires": 6108,
    "▁terpotong": 6109,
    "▁gatot": 6110,
    "▁web": 6111,
    "▁caf": 6112,
    "▁dimulai": 6113,
    "▁rangka": 6114,
    "ster": 6115,
    "▁pelacur": 6116,
    "▁menutupi": 6117,
    "▁fet": 6118,
    "▁espresso": 6119,
    "▁lapang": 6120,
    "▁menghangatkan": 6121,
    "▁berbah": 6122,
    "▁pon": 6123,
    "lawan": 6124,
    "▁temukan": 6125,
    "▁mendatangi": 6126,
    "▁ratu": 6127,
    "tas": 6128,
    "▁daj": 6129,
    "jal": 6130,
    "▁preman": 6131,
    "▁gentong": 6132,
    "▁cott": 6133,
    "uno": 6134,
    "favorit": 6135,
    "▁flo": 6136,
    "▁anggaran": 6137,
    "erangan": 6138,
    "ohongi": 6139,
    "▁wedding": 6140,
    "iced": 6141,
    "▁hindari": 6142,
    "▁wort": 6143,
    "▁wortel": 6144,
    "▁jelang": 6145,
    "laki": 6146,
    "▁gok": 6147,
    "▁bab": 6148,
    "▁rump": 6149,
    "▁que": 6150,
    "▁queen": 6151,
    "list": 6152,
    "▁viralkan": 6153,
    "▁pangl": 6154,
    "▁panglima": 6155,
    "lusif": 6156,
    "▁memal": 6157,
    "▁jago": 6158,
    "▁pepper": 6159,
    "▁ax": 6160,
    "▁bonus": 6161,
    "ukkan": 6162,
    "▁tikungan": 6163,
    "▁curam": 6164,
    "▁adit": 6165,
    "▁recomend": 6166,
    "▁perkeb": 6167,
    "▁perkebunan": 6168,
    "fe": 6169,
    "▁gereja": 6170,
    "▁dup": 6171,
    "▁opsi": 6172,
    "tah": 6173,
    "▁bara": 6174,
    "▁kios": 6175,
    "▁anggap": 6176,
    "▁jun": 6177,
    "▁viv": 6178,
    "▁gubuk": 6179,
    "▁pena": 6180,
    "▁badai": 6181,
    "▁dsb": 6182,
    "▁dituk": 6183,
    "▁vanilla": 6184,
    "▁balado": 6185,
    "▁most": 6186,
    "sue": 6187,
    "▁pencinta": 6188,
    "▁ego": 6189,
    "▁suram": 6190,
    "▁walik": 6191,
    "▁walikota": 6192,
    "▁gabung": 6193,
    "▁roof": 6194,
    "▁onta": 6195,
    "▁kerip": 6196,
    "inj": 6197,
    "injau": 6198,
    "uter": 6199,
    "▁kesehatan": 6200,
    "▁rasis": 6201,
    "▁msg": 6202,
    "▁kencur": 6203,
    "▁vint": 6204,
    "▁vintage": 6205,
    "elan": 6206,
    "▁dini": 6207,
    "▁tali": 6208,
    "▁75": 6209,
    "pura": 6210,
    "egan": 6211,
    "▁bandingkan": 6212,
    "▁250": 6213,
    "▁semangkuk": 6214,
    "▁manual": 6215,
    "▁siapkan": 6216,
    "▁netral": 6217,
    "▁wagub": 6218,
    "▁flower": 6219,
    "▁its": 6220,
    "▁fol": 6221,
    "date": 6222,
    "▁26": 6223,
    "acet": 6224,
    "▁kehid": 6225,
    "▁kehidupan": 6226,
    "▁kaya": 6227,
    "▁il": 6228,
    "▁goog": 6229,
    "erika": 6230,
    "▁ganteng": 6231,
    "▁furn": 6232,
    "▁furnit": 6233,
    "▁ev": 6234,
    "▁ikon": 6235,
    "▁pasirkal": 6236,
    "▁pasirkaliki": 6237,
    "▁tunai": 6238,
    "▁kopiti": 6239,
    "▁kopitiam": 6240,
    "▁ketidak": 6241,
    "faatkan": 6242,
    "anganan": 6243,
    "▁got": 6244,
    "▁lebar": 6245,
    "▁mundur": 6246,
    "uf": 6247,
    "▁sis": 6248,
    "ijen": 6249,
    "▁sekedar": 6250,
    "▁penenggel": 6251,
    "▁penenggelaman": 6252,
    "▁keram": 6253,
    "empati": 6254,
    "▁disekitar": 6255,
    "▁cabul": 6256,
    "▁kil": 6257,
    "▁konser": 6258,
    "▁bakwan": 6259,
    "▁personal": 6260,
    "▁kalimantan": 6261,
    "▁koki": 6262,
    "▁american": 6263,
    "▁dijawab": 6264,
    "▁teriyaki": 6265,
    "▁dipanggil": 6266,
    "▁kecoa": 6267,
    "▁luhut": 6268,
    "▁dibutuhkan": 6269,
    "▁laporan": 6270,
    "▁jk": 6271,
    "▁dibumbui": 6272,
    "▁holy": 6273,
    "ormas": 6274,
    "kwkw": 6275,
    "▁madame": 6276,
    "▁bertahun": 6277,
    "▁excell": 6278,
    "▁mutu": 6279,
    "▁babu": 6280,
    "▁tiramis": 6281,
    "▁survei": 6282,
    "unghai": 6283,
    "▁omong": 6284,
    "▁meyakinkan": 6285,
    "▁32": 6286,
    "▁wapres": 6287,
    "▁panggil": 6288,
    "▁tulus": 6289,
    "▁bakery": 6290,
    "▁dendam": 6291,
    "▁bej": 6292,
    "▁blog": 6293,
    "▁tanaman": 6294,
    "▁lant": 6295,
    "▁size": 6296,
    "uga": 6297,
    "▁keas": 6298,
    "▁pember": 6299,
    "▁diter": 6300,
    "▁berkuasa": 6301,
    "uruk": 6302,
    "▁mid": 6303,
    "olok": 6304,
    "▁3x": 6305,
    "▁gaduh": 6306,
    "▁berkilah": 6307,
    "▁emil": 6308,
    "▁cust": 6309,
    "▁dugaan": 6310,
    "▁kejadian": 6311,
    "▁lurus": 6312,
    "▁mojito": 6313,
    "akti": 6314,
    "▁enggan": 6315,
    "▁bum": 6316,
    "▁bumn": 6317,
    "▁anjis": 6318,
    "▁400": 6319,
    "▁maluin": 6320,
    "▁oknum": 6321,
    "antian": 6322,
    "▁kapasitas": 6323,
    "amg": 6324,
    "▁flying": 6325,
    "awahan": 6326,
    "▁mesum": 6327,
    "▁penjualan": 6328,
    "▁berputar": 6329,
    "ight": 6330,
    "▁win": 6331,
    "▁mobile": 6332,
    "▁enakan": 6333,
    "▁menjamu": 6334,
    "▁berpasangan": 6335,
    "▁ubi": 6336,
    "▁kakap": 6337,
    "▁wali": 6338,
    "▁inn": 6339,
    "▁with": 6340,
    "cen": 6341,
    "▁troto": 6342,
    "▁trotoar": 6343,
    "▁undang": 6344,
    "egah": 6345,
    "▁mode": 6346,
    "▁seringkali": 6347,
    "▁ibadah": 6348,
    "▁polos": 6349,
    "▁bites": 6350,
    "▁omongan": 6351,
    "▁perbatasan": 6352,
    "▁tren": 6353,
    "oke": 6354,
    "▁kelemb": 6355,
    "▁djarot": 6356,
    "▁menimb": 6357,
    "▁menimbulkan": 6358,
    "▁menghargai": 6359,
    "▁dianggap": 6360,
    "baru": 6361,
    "▁bajig": 6362,
    "▁bajigur": 6363,
    "bl": 6364,
    "▁olahraga": 6365,
    "▁west": 6369,
    "taran": 6370,
    "unuh": 6371,
    "▁berjauhan": 6372,
    "its": 6373,
    "▁berbanding": 6374,
    "▁mn": 6375,
    "▁sebandinglah": 6376,
    "▁bento": 6377,
    "▁kepen": 6378,
    "▁kepenatan": 6379,
    "▁arm": 6380,
    "▁pertamina": 6381,
    "▁hihi": 6382,
    "▁oon": 6383,
    "ational": 6384,
    "▁banking": 6385,
    "▁misalnya": 6386,
    "▁tew": 6387,
    "▁cacat": 6388,
    "▁logika": 6389,
    "▁sanggup": 6390,
    "enan": 6391,
    "▁periksa": 6392,
    "▁semenjak": 6393,
    "▁refer": 6394,
    "▁sesudah": 6395,
    "▁febr": 6396,
    "▁elegant": 6397,
    "▁hiu": 6398,
    "▁counter": 6399,
    "▁menyusahkan": 6400,
    "▁panser": 6401,
    "▁kebahagi": 6402,
    "▁kebahagiaan": 6403,
    "▁kabupat": 6404,
    "▁kabupaten": 6405,
    "▁naj": 6406,
    "▁informatif": 6407,
    "▁penyel": 6408,
    "▁publik": 6409,
    "▁arena": 6410,
    "▁lumer": 6411,
    "▁tri": 6412,
    "▁run": 6413,
    "▁keraton": 6414,
    "▁menolak": 6415,
    "▁dipec": 6416,
    "▁dipecat": 6417,
    "ahtera": 6418,
    "▁hamil": 6419,
    "▁300": 6420,
    "▁ori": 6421,
    "05": 6422,
    "▁maret": 6423,
    "ulasi": 6424,
    "▁crunch": 6425,
    "▁crunchy": 6426,
    "▁tempura": 6427,
    "▁inspirasi": 6428,
    "▁rock": 6429,
    "koar": 6430,
    "antri": 6431,
    "▁kemungkin": 6432,
    "▁kemungkinan": 6433,
    "▁dinyal": 6434,
    "▁dinyalakan": 6435,
    "▁aftern": 6436,
    "▁afternoon": 6437,
    "▁lobby": 6438,
    "▁sundanese": 6439,
    "▁ungkep": 6440,
    "▁cimp": 6441,
    "▁cimplung": 6442,
    "▁servic": 6443,
    "▁services": 6444,
    "▁segelas": 6445,
    "▁nipis": 6446,
    "▁bima": 6447,
    "▁arya": 6448,
    "ancel": 6449,
    "▁diolah": 6450,
    "▁chasi": 6451,
    "▁fusi": 6452,
    "▁fusion": 6453,
    "▁yusup": 6454,
    "▁kew": 6455,
    "ean": 6456,
    "oat": 6457,
    "▁sabang": 6458,
    "▁insya": 6459,
    "ukau": 6460,
    "▁bendera": 6461,
    "▁miring": 6462,
    "▁berpadu": 6463,
    "▁zuppa": 6464,
    "▁pameran": 6465,
    "▁pendidikan": 6466,
    "reg": 6467,
    "▁parahyangan": 6468,
    "▁angus": 6469,
    "▁yakini": 6470,
    "▁muly": 6471,
    "▁usir": 6472,
    "endah": 6473,
    "▁menyangka": 6474,
    "▁curiga": 6475,
    "▁blackpep": 6476,
    "▁blackpepper": 6477,
    "▁paslon": 6478,
    "▁dihargai": 6479,
    "opoli": 6480,
    "▁menangkan": 6481,
    "iam": 6482,
    "▁deddy": 6483,
    "sep": 6484,
    "▁kebut": 6485,
    "▁kebutuhan": 6486,
    "▁pari": 6487,
    "▁pariwisata": 6488,
    "▁manager": 6489,
    "▁bermanfaat": 6490,
    "▁makanya": 6491,
    "▁kwetia": 6492,
    "▁kwetiaw": 6493,
    "▁tai": 6494,
    "▁reds": 6495,
    "▁bensin": 6496,
    "ital": 6497,
    "▁burgund": 6498,
    "▁burgundy": 6499,
    "▁vip": 6500,
    "▁ucapan": 6501,
    "strasi": 6502,
    "▁makananan": 6503,
    "▁tomyam": 6504,
    "▁mengedepankan": 6505,
    "oyang": 6506,
    "▁ekstra": 6507,
    "▁budi": 6508,
    "▁pimpinan": 6509,
    "▁encer": 6510,
    "▁tembak": 6511,
    "▁tekan": 6512,
    "▁calam": 6513,
    "▁fi": 6514,
    "verage": 6515,
    "▁dokter": 6516,
    "▁selam": 6517,
    "ingkah": 6518,
    "asilkan": 6519,
    "▁berpol": 6520,
    "▁berpolitik": 6521,
    "▁makassar": 6522,
    "▁pengap": 6523,
    "▁bayi": 6524,
    "▁mendengarkan": 6525,
    "▁magrib": 6526,
    "▁vila": 6527,
    "elet": 6528,
    "▁fantastis": 6529,
    "▁greent": 6530,
    "▁greentea": 6531,
    "▁satuan": 6532,
    "▁pie": 6533,
    "▁apel": 6534,
    "ept": 6535,
    "▁aqua": 6536,
    "▁diatas": 6537,
    "▁suhu": 6538,
    "eluh": 6539,
    "krim": 6540,
    "▁eneng": 6541,
    "▁pete": 6542,
    "▁cala": 6543,
    "▁calais": 6544,
    "▁bubble": 6545,
    "▁dikant": 6546,
    "▁dikantong": 6547,
    "▁bale": 6548,
    "init": 6549,
    "▁oz": 6550,
    "ramable": 6551,
    "▁kenaikan": 6552,
    "▁game": 6553,
    "▁seberapa": 6554,
    "▁penerbangan": 6555,
    "▁mengajarkan": 6556,
    "▁dest": 6557,
    "antau": 6558,
    "▁kendala": 6559,
    "▁seputar": 6560,
    "▁piala": 6561,
    "ten": 6562,
    "▁usai": 6563,
    "▁kasarung": 6564,
    "▁jnt": 6565,
    "▁goy": 6566,
    "▁lapak": 6567,
    "▁awas": 6568,
    "▁sodara": 6569,
    "beda": 6570,
    "▁ilmu": 6571,
    "smoking": 6572,
    "egr": 6573,
    "ex": 6574,
    "▁terhitung": 6575,
    "▁alhasil": 6576,
    "▁menyerap": 6577,
    "▁transportasi": 6578,
    "▁beristirahat": 6579,
    "▁cibi": 6580,
    "▁cibiuk": 6581,
    "▁putuskan": 6582,
    "▁menghancurkan": 6583,
    "say": 6584,
    "▁pake": 6585,
    "▁dipersil": 6586,
    "▁dipersilakan": 6587,
    "lagi": 6588,
    "▁vet": 6589,
    "▁ditempuh": 6590,
    "▁menyesatkan": 6591,
    "▁lud": 6592,
    "▁semur": 6593,
    "▁nut": 6594,
    "▁sepeda": 6595,
    "▁represent": 6596,
    "tain": 6597,
    "▁penjahat": 6598,
    "▁sariayu": 6599,
    "▁tempuh": 6600,
    "▁okay": 6601,
    "ukuran": 6602,
    "▁jahat": 6603,
    "eres": 6604,
    "▁far": 6605,
    "▁merugikan": 6606,
    "▁aff": 6607,
    "▁keli": 6608,
    "elayan": 6609,
    "▁bercanda": 6610,
    "▁lahir": 6611,
    "▁berbahaya": 6612,
    "▁lenov": 6613,
    "▁lenovo": 6614,
    "▁pahlawan": 6615,
    "▁porto": 6616,
    "▁promosi": 6617,
    "▁sampan": 6618,
    "kah": 6619,
    "▁ditaburi": 6620,
    "▁saboga": 6621,
    "▁persatuan": 6622,
    "▁pengikut": 6623,
    "▁dajjal": 6624,
    "▁terjal": 6625,
    "▁dipertahankan": 6626,
    "inata": 6627,
    "joyo": 6628,
    "▁bocah": 6629,
    "epet": 6630,
    "▁hain": 6631,
    "▁cie": 6632,
    "▁suasanan": 6633,
    "▁tongs": 6634,
    "▁tongseng": 6635,
    "▁ramad": 6636,
    "▁ramadhan": 6637,
    "▁keg": 6638,
    "▁overpriced": 6639,
    "urunan": 6640,
    "▁redup": 6641,
    "omba": 6642,
    "▁politisi": 6643,
    "▁rumput": 6644,
    "▁berencana": 6645,
    "oney": 6646,
    "ilangan": 6647,
    "por": 6648,
    "▁memalukan": 6649,
    "▁tingkatkan": 6650,
    "▁zadit": 6651,
    "▁tripad": 6652,
    "▁tripadvisor": 6653,
    "▁tanjung": 6654,
    "▁perti": 6655,
    "▁isis": 6656,
    "▁gurami": 6657,
    "▁mengobati": 6658,
    "murah": 6659,
    "▁dibalut": 6660,
    "▁menuk": 6661,
    "▁wasit": 6662,
    "ajam": 6663,
    "▁internal": 6664,
    "▁sebalik": 6665,
    "▁sebaliknya": 6666,
    "▁melap": 6667,
    "▁soft": 6668,
    "epan": 6669,
    "▁kenc": 6670,
    "▁kodam": 6671,
    "▁aci": 6672,
    "▁membedakan": 6673,
    "▁aa": 6674,
    "▁kawin": 6675,
    "▁bercengkrama": 6676,
    "▁krupuk": 6677,
    "▁setahu": 6678,
    "▁menyambut": 6679,
    "▁mengab": 6680,
    "▁hancurkan": 6681,
    "▁nyinyir": 6682,
    "▁tunjuk": 6683,
    "▁group": 6684,
    "▁syarat": 6685,
    "▁gall": 6686,
    "▁dire": 6687,
    "▁chip": 6688,
    "▁god": 6689,
    "▁fe": 6690,
    "▁menipu": 6691,
    "▁tissue": 6692,
    "▁pertimbangan": 6693,
    "▁kepon": 6694,
    "▁keponakan": 6695,
    "▁hadiah": 6696,
    "ajangan": 6697,
    "▁park": 6698,
    "▁unpad": 6699,
    "▁cocoklah": 6700,
    "▁part": 6701,
    "ching": 6702,
    "▁gbk": 6703,
    "inat": 6704,
    "▁antri": 6705,
    "▁duren": 6706,
    "▁pembela": 6707,
    "▁berger": 6708,
    "▁bergerak": 6709,
    "▁saksi": 6710,
    "▁apresiasi": 6711,
    "▁alq": 6712,
    "▁alquran": 6713,
    "▁mic": 6714,
    "▁alb": 6715,
    "▁album": 6716,
    "▁fas": 6717,
    "hion": 6718,
    "▁kumpulan": 6719,
    "onan": 6720,
    "▁koleksi": 6721,
    "▁tkp": 6722,
    "▁teroris": 6723,
    "▁sudahlah": 6724,
    "bur": 6725,
    "▁berbintang": 6726,
    "yl": 6727,
    "▁tako": 6728,
    "▁takoyaki": 6729,
    "▁birth": 6730,
    "▁birthday": 6731,
    "▁baku": 6732,
    "▁kup": 6733,
    "▁konon": 6734,
    "▁janjian": 6735,
    "▁slogan": 6736,
    "▁bocor": 6737,
    "▁sepiring": 6738,
    "▁dar": 6739,
    "arkir": 6740,
    "▁update": 6741,
    "▁pic": 6742,
    "▁dipasang": 6743,
    "fit": 6744,
    "▁dicek": 6745,
    "▁sese": 6746,
    "▁seseorang": 6747,
    "▁gerobak": 6748,
    "▁persiapan": 6749,
    "▁apr": 6750,
    "▁mam": 6751,
    "▁amerika": 6752,
    "▁furniture": 6753,
    "▁mantaap": 6754,
    "▁eb": 6755,
    "▁ebi": 6756,
    "▁cobek": 6757,
    "▁palembang": 6758,
    "▁pantai": 6759,
    "▁selagi": 6760,
    "▁for": 6761,
    "▁menyak": 6762,
    "▁idi": 6763,
    "▁moral": 6764,
    "▁nasd": 6765,
    "▁nasdem": 6766,
    "▁keramahan": 6767,
    "esona": 6768,
    "▁menempati": 6769,
    "tail": 6770,
    "▁penghina": 6771,
    "anch": 6772,
    "▁maranggi": 6773,
    "ongong": 6774,
    "▁santun": 6775,
    "▁mencer": 6776,
    "▁curry": 6777,
    "▁land": 6778,
    "▁dahaga": 6779,
    "ox": 6780,
    "▁subs": 6781,
    "idi": 6782,
    "bos": 6783,
    "▁spring": 6784,
    "▁tindakan": 6785,
    "▁berkeliling": 6786,
    "mudahan": 6787,
    "▁bayam": 6788,
    "▁sejumlah": 6789,
    "▁menyerup": 6790,
    "▁conc": 6791,
    "▁penguasa": 6792,
    "▁jemput": 6793,
    "oice": 6794,
    "▁isteri": 6795,
    "▁hanura": 6796,
    "▁eksotis": 6797,
    "ingi": 6798,
    "▁isti": 6799,
    "▁seimbang": 6800,
    "▁racikan": 6801,
    "ustri": 6802,
    "▁bep": 6803,
    "▁beperg": 6804,
    "▁bepergian": 6805,
    "▁nood": 6806,
    "▁noodle": 6807,
    "imi": 6808,
    "epi": 6809,
    "ereng": 6810,
    "▁tauge": 6811,
    "▁nyemp": 6812,
    "ampingi": 6813,
    "▁informas": 6814,
    "▁informasikan": 6815,
    "▁excellent": 6816,
    "▁lengket": 6817,
    "ance": 6818,
    "▁dilewatkan": 6819,
    "▁lupakan": 6820,
    "▁thumb": 6821,
    "▁thumbs": 6822,
    "▁thumbsup": 6823,
    "ahah": 6824,
    "▁kekasih": 6825,
    "▁kesepian": 6826,
    "▁dipatiukur": 6827,
    "ekali": 6828,
    "▁outd": 6829,
    "▁tampil": 6830,
    "▁hamp": 6831,
    "elis": 6832,
    "▁pengawet": 6833,
    "▁tertinggi": 6834,
    "▁didominasi": 6835,
    "▁120": 6836,
    "▁menenangkan": 6837,
    "▁selasa": 6838,
    "▁hor": 6839,
    "▁snack": 6840,
    "▁holyc": 6841,
    "▁holycow": 6842,
    "jajakan": 6843,
    "▁elekta": 6844,
    "▁elektabil": 6845,
    "▁elektabilitas": 6846,
    "taz": 6847,
    "▁pack": 6848,
    "▁ojol": 6849,
    "ience": 6850,
    "▁orde": 6851,
    "▁tombol": 6852,
    "▁sesua": 6853,
    "▁sesuailah": 6854,
    "▁akbar": 6855,
    "▁prop": 6856,
    "▁mentri": 6857,
    "lagu": 6858,
    "▁gemerl": 6859,
    "amur": 6860,
    "▁jil": 6861,
    "▁ketem": 6862,
    "▁kupat": 6863,
    "▁ama": 6864,
    "▁amazing": 6865,
    "▁tizi": 6866,
    "sore": 6867,
    "▁tiramisu": 6868,
    "▁hubung": 6869,
    "▁pabrik": 6870,
    "▁mm": 6871,
    "▁grilled": 6872,
    "ehati": 6873,
    "▁sepakat": 6874,
    "▁bertebaran": 6875,
    "▁imas": 6876,
    "▁karak": 6877,
    "▁karakter": 6878,
    "▁persawahan": 6879,
    "▁sedia": 6880,
    "▁perbaiki": 6881,
    "▁nyanyi": 6882,
    "▁banteng": 6883,
    "smiling": 6884,
    "smilingeyes": 6885,
    "▁menud": 6886,
    "▁menuduh": 6887,
    "▁berkedok": 6888,
    "▁dc": 6889,
    "▁bodas": 6890,
    "▁pemprov": 6891,
    "▁acar": 6892,
    "▁gudang": 6893,
    "▁diperlukan": 6894,
    "▁cheesy": 6895,
    "▁dh": 6896,
    "red": 6897,
    "▁muat": 6898,
    "▁kelembekan": 6899,
    "▁berbic": 6900,
    "▁berbicara": 6901,
    "▁memaksa": 6902,
    "▁reg": 6903,
    "▁alur": 6904,
    "ifikasi": 6905,
    "inalisasi": 6906,
    "▁bom": 6907,
    "▁goul": 6908,
    "▁goulash": 6909,
    "▁keta": 6910,
    "▁ketawa": 6911,
    "uji": 6912,
    "ediksi": 6913,
    "▁polling": 6914,
    "▁adat": 6915,
    "▁penista": 6916,
    "▁gading": 6917,
    "▁unpar": 6918,
    "▁keper": 6919,
    "utang": 6920,
    "▁topi": 6921,
    "arto": 6922,
    "arikan": 6923,
    "▁citylight": 6924,
    "▁kejauhan": 6925,
    "halal": 6926,
    "▁tasikm": 6927,
    "▁tasikmal": 6928,
    "▁tasikmalaya": 6929,
    "▁berkeli": 6930,
    "▁berkeliaran": 6931,
    "▁terharu": 6932,
    "▁referensi": 6933,
    "▁pembakaran": 6934,
    "▁bayangkan": 6935,
    "▁smart": 6936,
    "▁smartf": 6937,
    "▁smartfren": 6938,
    "▁icon": 6939,
    "▁flat": 6940,
    "▁dipajang": 6941,
    "▁kerlap": 6942,
    "▁twe": 6943,
    "▁penumpang": 6944,
    "▁2012": 6945,
    "▁soekarno": 6946,
    "egi": 6947,
    "▁wo": 6948,
    "▁sas": 6949,
    "▁5000": 6950,
    "▁blueb": 6951,
    "▁blueberry": 6952,
    "aksakan": 6953,
    "▁ih": 6954,
    "▁leng": 6955,
    "▁berkah": 6956,
    "▁organ": 6957,
    "▁212": 6958,
    "▁hening": 6959,
    "amar": 6960,
    "▁ibuk": 6961,
    "▁ibukota": 6962,
    "▁menumpuk": 6963,
    "▁mention": 6964,
    "▁cashback": 6965,
    "▁kabut": 6966,
    "gen": 6967,
    "kk": 6968,
    "▁deklar": 6969,
    "▁merapat": 6970,
    "▁pelat": 6971,
    "▁bersikap": 6972,
    "▁terpikir": 6973,
    "▁33": 6974,
    "▁tampaknya": 6975,
    "atal": 6976,
    "▁iz": 6977,
    "▁traditional": 6978,
    "▁beramai": 6979,
    "▁mitra": 6980,
    "▁sembarang": 6982,
    "oles": 6983,
    "▁dikelola": 6984,
    "▁fok": 6985,
    "▁fokus": 6986,
    "ict": 6987,
    "▁pesaing": 6988,
    "annel": 6989,
    "▁merauk": 6990,
    "▁merauke": 6991,
    "▁lebay": 6992,
    "▁wonder": 6993,
    "▁kekayaan": 6994,
    "▁makm": 6995,
    "▁makmur": 6996,
    "▁sejam": 6997,
    "▁indomi": 6998,
    "▁what": 6999,
    "▁syariah": 7000,
    "irik": 7001,
    "▁rt": 7002,
    "▁sma": 7003,
    "▁dimus": 7004,
    "arangan": 7005,
    "harga": 7006,
    "▁dori": 7007,
    "▁old": 7008,
    "▁menginjak": 7009,
    "kayu": 7010,
    "▁membing": 7011,
    "▁membingungkan": 7012,
    "▁nark": 7013,
    "▁narkoba": 7014,
    "▁berdas": 7015,
    "▁berdasarkan": 7016,
    "▁hakim": 7017,
    "▁dayang": 7018,
    "▁fungsi": 7019,
    "▁tumbuhan": 7020,
    "▁monopoli": 7021,
    "▁temen": 7022,
    "▁sedi": 7023,
    "▁alum": 7024,
    "▁pemelih": 7025,
    "▁pemeliharaan": 7026,
    "▁cm": 7027,
    "▁lol": 7028,
    "fel": 7029,
    "▁carte": 7030,
    "▁berfa": 7031,
    "▁berfaedah": 7032,
    "▁lenyapkan": 7033,
    "▁mengul": 7034,
    "▁mengakui": 7035,
    "▁pb": 7036,
    "▁piec": 7037,
    "▁darah": 7038,
    "▁ngad": 7039,
    "▁pilhan": 7040,
    "▁sou": 7041,
    "venir": 7042,
    "▁capuc": 7043,
    "▁season": 7044,
    "ampan": 7045,
    "▁zona": 7046,
    "▁alergi": 7047,
    "▁disimpan": 7048,
    "▁singkatan": 7049,
    "▁combo": 7050,
    "▁mengasyik": 7051,
    "▁mengasyikkan": 7052,
    "▁titik": 7053,
    "▁menghasilkan": 7054,
    "cam": 7055,
    "▁kateg": 7056,
    "▁kategori": 7057,
    "epsi": 7058,
    "▁omelet": 7059,
    "▁ditunjang": 7060,
    "▁ling": 7061,
    "cini": 7062,
    "▁sedem": 7063,
    "▁sedemikian": 7064,
    "▁melupakan": 7065,
    "▁abis": 7066,
    "▁keseg": 7067,
    "▁kesegaran": 7068,
    "▁copot": 7069,
    "▁download": 7070,
    "▁definit": 7071,
    "▁definitely": 7072,
    "▁kopo": 7073,
    "▁instagramable": 7074,
    "uasan": 7075,
    "▁exp": 7076,
    "krip": 7077,
    "▁kebenc": 7078,
    "▁kebencian": 7079,
    "yus": 7080,
    "▁transj": 7081,
    "▁halte": 7082,
    "▁ring": 7083,
    "▁cairo": 7084,
    "▁small": 7085,
    "akn": 7086,
    "aknat": 7087,
    "▁intel": 7088,
    "▁djog": 7089,
    "▁serang": 7090,
    "▁cre": 7091,
    "emari": 7092,
    "▁menghubungi": 7093,
    "sed": 7094,
    "aster": 7095,
    "▁mikirin": 7096,
    "▁mesjid": 7097,
    "▁terganggu": 7098,
    "▁bercampur": 7099,
    "▁bolong": 7100,
    "▁menyala": 7101,
    "partai": 7103,
    "▁ble": 7104,
    "▁bleu": 7105,
    "kadang": 7106,
    "▁cappucino": 7107,
    "ibusi": 7108,
    "▁mozz": 7109,
    "▁mozzarella": 7110,
    "▁nampaknya": 7111,
    "▁like": 7112,
    "egritas": 7113,
    "▁jender": 7114,
    "▁jenderal": 7115,
    "▁sudrajat": 7116,
    "▁cireng": 7117,
    "roti": 7118,
    "▁layang": 7119,
    "ete": 7120,
    "▁fase": 7121,
    "anggar": 7122,
    "eny": 7123,
    "▁yi": 7124,
    "▁ditaruh": 7125,
    "▁seat": 7126,
    "▁diperb": 7127,
    "▁kornet": 7128,
    "ejar": 7129,
    "ongos": 7130,
    "jajah": 7131,
    "ungu": 7132,
    "▁astag": 7133,
    "lamasi": 7134,
    "▁toping": 7135,
    "ustik": 7136,
    "▁pengkhianat": 7137,
    "▁tantangan": 7138,
    "▁resort": 7139,
    "edas": 7140,
    "engkapan": 7141,
    "ahatan": 7142,
    "▁dibalas": 7143,
    "▁kalip": 7144,
    "▁kalipah": 7145,
    "▁apo": 7146,
    "▁ludes": 7147,
    "▁berjuang": 7148,
    "itaan": 7149,
    "▁sia": 7150,
    "▁terkejut": 7151,
    "▁wadah": 7152,
    "▁dipakar": 7153,
    "▁webs": 7154,
    "▁website": 7155,
    "esaikan": 7156,
    "▁ketenangan": 7157,
    "otion": 7158,
    "esto": 7159,
    "▁wel": 7160,
    "▁tof": 7161,
    "▁monster": 7162,
    "▁berlangganan": 7163,
    "▁ayah": 7164,
    "▁citywalk": 7165,
    "▁supr": 7166,
    "▁pantat": 7167,
    "▁fries": 7168,
    "▁keliatan": 7169,
    "▁memperh": 7170,
    "▁memperhatikan": 7171,
    "▁berkel": 7172,
    "ewek": 7173,
    "▁mr": 7174,
    "otel": 7175,
    "▁sangkar": 7176,
    "▁lubang": 7177,
    "▁pengurus": 7178,
    "▁areal": 7179,
    "cino": 7180,
    "▁mustika": 7181,
    "▁mozarella": 7182,
    "ohol": 7183,
    "▁chil": 7184,
    "▁terhibur": 7185,
    "ucapkan": 7186,
    "erat": 7187,
    "embangan": 7188,
    "▁fu": 7189,
    "▁kenakan": 7190,
    "▁truno": 7191,
    "▁trunojoyo": 7192,
    "▁verde": 7193,
    "embalian": 7194,
    "▁kekalahan": 7195,
    "▁float": 7196,
    "▁hainam": 7197,
    "▁mengeluh": 7198,
    "▁provinsi": 7199,
    "▁ditr": 7200,
    "▁fc": 7201,
    "▁skor": 7202,
    "▁venue": 7203,
    "▁brok": 7204,
    "▁keturunan": 7205,
    "iasa": 7206,
    "▁kong": 7207,
    "ormasi": 7208,
    "▁laz": 7209,
    "▁monkey": 7210,
    "dl": 7211,
    "▁beng": 7212,
    "▁mencat": 7213,
    "▁mencatat": 7214,
    "▁kekuatan": 7215,
    "ombolan": 7216,
    "▁kehilangan": 7217,
    "▁eksk": 7218,
    "▁eksklusif": 7219,
    "▁bupati": 7220,
    "▁berlem": 7221,
    "▁berlemak": 7222,
    "▁lunch": 7223,
    "▁pojok": 7224,
    "▁kreasi": 7225,
    "syat": 7226,
    "rempah": 7227,
    "▁sausage": 7228,
    "▁berhati": 7229,
    "enaga": 7230,
    "▁logo": 7231,
    "jab": 7232,
    "anggapi": 7233,
    "▁berkelok": 7234,
    "▁tajam": 7235,
    "▁dpd": 7236,
    "▁digel": 7237,
    "▁provok": 7238,
    "▁ketiam": 7239,
    "enteng": 7240,
    "▁melaporkan": 7241,
    "▁keluhan": 7242,
    "▁larut": 7243,
    "▁tukar": 7244,
    "▁bgtu": 7245,
    "ebabkan": 7246,
    "▁fraksi": 7247,
    "▁menel": 7248,
    "ile": 7249,
    "▁artist": 7250,
    "▁giant": 7251,
    "wo": 7252,
    "▁aust": 7253,
    "▁serasi": 7254,
    "ikhu": 7255,
    "▁dor": 7256,
    "session": 7257,
    "▁mens": 7258,
    "▁kand": 7259,
    "emas": 7260,
    "engaruh": 7261,
    "▁gallery": 7262,
    "▁penaw": 7263,
    "▁penawaran": 7264,
    "▁asta": 7265,
    "▁astaga": 7266,
    "▁ukur": 7267,
    "▁buktikan": 7268,
    "▁almond": 7269,
    "▁rich": 7270,
    "▁menyampa": 7271,
    "▁menyampaikan": 7272,
    "jajar": 7273,
    "▁signal": 7274,
    "▁cb": 7275,
    "▁kode": 7276,
    "▁tj": 7277,
    "▁dibelak": 7278,
    "▁dibelakang": 7279,
    "asmi": 7280,
    "▁disk": 7281,
    "▁diskusi": 7282,
    "▁destinasi": 7283,
    "▁cakwe": 7284,
    "▁sendirian": 7285,
    "▁melewatkan": 7286,
    "▁peril": 7287,
    "▁perilaku": 7288,
    "▁balas": 7289,
    "▁eye": 7290,
    "▁resor": 7291,
    "▁keripik": 7292,
    "▁komputer": 7293,
    "anaan": 7294,
    "▁surya": 7295,
    "▁objek": 7296,
    "▁kesab": 7297,
    "▁kesabaran": 7298,
    "▁hypers": 7299,
    "▁hypersquare": 7300,
    "▁sekil": 7301,
    "▁sekilas": 7302,
    "▁tap": 7303,
    "▁melawan": 7304,
    "▁asu": 7305,
    "▁fashion": 7306,
    "▁mast": 7307,
    "▁masturi": 7308,
    "▁bobr": 7309,
    "▁bobrok": 7310,
    "mar": 7311,
    "▁membiarkan": 7312,
    "▁fire": 7313,
    "▁singkat": 7314,
    "▁penyanyi": 7315,
    "▁sesampai": 7316,
    "▁dibagi": 7317,
    "▁kesini": 7318,
    "▁nak": 7319,
    "▁veri": 7320,
    "▁lai": 7321,
    "ded": 7322,
    "▁vic": 7323,
    "▁mengusir": 7324,
    "▁sesungguh": 7325,
    "▁sesungguhnya": 7326,
    "▁belain": 7327,
    "▁rame": 7328,
    "▁kaos": 7329,
    "▁bill": 7330,
    "▁kelewat": 7331,
    "▁eksterior": 7332,
    "▁mewak": 7333,
    "▁menghadirkan": 7334,
    "▁menggamb": 7335,
    "▁menggambarkan": 7336,
    "▁kelamaan": 7337,
    "▁09": 7338,
    "▁siram": 7339,
    "▁pendatang": 7340,
    "perasi": 7341,
    "▁ciam": 7342,
    "▁miz": 7343,
    "▁mizwar": 7344,
    "▁menyej": 7345,
    "▁terbenam": 7346,
    "▁najis": 7347,
    "▁berbincang": 7348,
    "andingi": 7349,
    "▁yaah": 7350,
    "▁pesanlah": 7351,
    "▁caff": 7352,
    "▁caffe": 7353,
    "▁tsb": 7354,
    "▁bed": 7355,
    "▁sesa": 7356,
    "▁sesaat": 7357,
    "itis": 7358,
    "lek": 7359,
    "▁oey": 7360,
    "▁besi": 7361,
    "▁dipotong": 7362,
    "▁pern": 7363,
    "▁senyuman": 7364,
    "ihara": 7365,
    "akaian": 7366,
    "▁yusuf": 7367,
    "▁idiot": 7368,
    "▁pembantu": 7369,
    "▁spageti": 7370,
    "▁april": 7371,
    "▁seiring": 7372,
    "▁1500": 7373,
    "bers": 7374,
    "▁ketan": 7375,
    "iduk": 7376,
    "▁franch": 7377,
    "▁representatif": 7378,
    "▁depot": 7379,
    "▁tat": 7380,
    "▁keken": 7381,
    "▁ratakan": 7382,
    "▁drive": 7383,
    "cap": 7384,
    "ekomendasi": 7385,
    "▁balon": 7386,
    "▁idr": 7387,
    "▁licin": 7389,
    "▁eatbos": 7390,
    "▁mozaru": 7391,
    "▁keboh": 7392,
    "ajaran": 7393,
    "kel": 7394,
    "▁salahkan": 7395,
    "lang": 7396,
    "▁menghalangi": 7397,
    "▁front": 7398,
    "▁keu": 7399,
    "▁keuangan": 7400,
    "▁advisor": 7401,
    "▁istiq": 7402,
    "▁keamanan": 7403,
    "erti": 7404,
    "mikan": 7405,
    "umen": 7406,
    "▁unggun": 7407,
    "▁industri": 7408,
    "▁bertingkat": 7409,
    "▁plang": 7410,
    "▁stick": 7411,
    "▁cottage": 7412,
    "▁ialah": 7413,
    "▁tolak": 7414,
    "▁berbumbu": 7415,
    "bul": 7416,
    "▁gala": 7417,
    "▁nyempil": 7418,
    "▁ht": 7419,
    "▁wkwkw": 7420,
    "erloin": 7421,
    "▁mancur": 7422,
    "lokir": 7423,
    "▁ambok": 7424,
    "▁ahokers": 7425,
    "▁creme": 7426,
    "▁brul": 7427,
    "▁happ": 7428,
    "▁apbd": 7429,
    "aib": 7430,
    "▁ig": 7431,
    "▁ngump": 7432,
    "▁ngumpet": 7433,
    "alilah": 7434,
    "▁minoritas": 7435,
    "use": 7436,
    "buru": 7437,
    "sap": 7438,
    "▁google": 7439,
    "▁menyembah": 7440,
    "▁deretan": 7441,
    "▁moi": 7442,
    "sokan": 7443,
    "▁tungk": 7444,
    "▁tungku": 7445,
    "etahuan": 7446,
    "fitnah": 7447,
    "▁cpn": 7448,
    "▁cpns": 7449,
    "angin": 7450,
    "▁yenny": 7451,
    "▁ruhut": 7452,
    "ulit": 7453,
    "▁emak": 7454,
    "otot": 7455,
    "▁mk": 7456,
    "▁fuy": 7457,
    "▁nasib": 7458,
    "▁majelis": 7459,
    "▁kelu": 7460,
    "care": 7461,
    "▁stusi": 7462,
    "▁stusio": 7463,
    "▁wid": 7464,
    "▁light": 7465,
    "▁bob": 7466,
    "▁isna": 7467,
    "ema": 7468,
    "▁gempol": 7469,
    "jas": 7470,
    "jasama": 7471,
    "▁penerima": 7472,
    "▁tegas": 7473,
    "▁bertempat": 7474,
    "▁gab": 7475,
    "inggal": 7476,
    "▁purw": 7477,
    "ler": 7478,
    "▁plat": 7479,
    "▁bts": 7480,
    "stream": 7481,
    "dan": 7482,
    "idah": 7483,
    "▁ustaz": 7484,
    "▁fitur": 7485,
    "▁nob": 7486,
    "▁jendral": 7487,
    "▁terburuk": 7488,
    "▁martad": 7489,
    "▁martadinata": 7490,
    "▁diduga": 7491,
    "▁dihiasi": 7492,
    "din": 7493,
    "▁kesib": 7494,
    "▁kesibukan": 7495,
    "▁5a": 7496,
    "▁melanjutkan": 7497,
    "▁sengs": 7498,
    "▁sengsara": 7499,
    "▁india": 7500,
    "▁penipu": 7501,
    "▁padi": 7502,
    "ingkan": 7503,
    "▁budha": 7504,
    "tua": 7505,
    "▁menyerupai": 7506,
    "▁berkata": 7507,
    "▁mengk": 7508,
    "▁gemerlap": 7509,
    "▁macar": 7510,
    "▁keman": 7511,
    "▁kemanisan": 7512,
    "arak": 7513,
    "▁maps": 7514,
    "pond": 7515,
    "▁berdeb": 7516,
    "▁berdebu": 7517,
    "▁nyali": 7518,
    "▁sty": 7519,
    "▁style": 7520,
    "opo": 7521,
    "▁diandalkan": 7522,
    "▁allahu": 7523,
    "▁customer": 7524,
    "▁sesekali": 7525,
    "▁depok": 7526,
    "▁cangkir": 7527,
    "▁seekor": 7528,
    "▁dpp": 7529,
    "▁menjamur": 7530,
    "▁penjara": 7531,
    "▁seblak": 7532,
    "sering": 7533,
    "▁debit": 7534,
    "▁booth": 7535,
    "▁pulen": 7536,
    "prib": 7537,
    "pribumi": 7538,
    "▁sampek": 7539,
    "▁pengusaha": 7540,
    "lian": 7541,
    "▁menet": 7542,
    "▁tulis": 7543,
    "rekan": 7544,
    "▁dinasehati": 7545,
    "▁dibentuk": 7546,
    "▁dine": 7547,
    "▁here": 7548,
    "▁tips": 7549,
    "▁kalap": 7550,
    "▁jumpai": 7551,
    "▁dirilis": 7552,
    "▁perf": 7553,
    "▁oneng": 7554,
    "▁pool": 7555,
    "▁humas": 7556,
    "▁cocol": 7557,
    "▁akh": 7558,
    "putar": 7559,
    "▁winner": 7560,
    "yana": 7561,
    "▁karm": 7562,
    "▁karmila": 7563,
    "zz": 7564,
    "eping": 7565,
    "▁dpc": 7566,
    "▁afrika": 7567,
    "▁patokan": 7568,
    "nan": 7569,
    "ongkong": 7570,
    "▁kaltim": 7571,
    "ran": 7572,
    "jelas": 7573,
    "side": 7574,
    "▁artis": 7575,
    "▁pemikiran": 7576,
    "eun": 7577,
    "alonkan": 7578,
    "imbol": 7579,
    "janji": 7580,
    "▁dikeluarkan": 7581,
    "▁kelur": 7582,
    "▁kelurga": 7583,
    "▁tutut": 7584,
    "▁mol": 7585,
    "▁angka": 7586,
    "▁engk": 7587,
    "▁engkau": 7588,
    "▁internetan": 7589,
    "▁kuatir": 7590,
    "▁karuh": 7592,
    "▁karuhun": 7593,
    "aret": 7594,
    "▁herit": 7595,
    "order": 7596,
    "ubarkan": 7597,
    "▁persija": 7598,
    "▁ukiran": 7599,
    "▁hazel": 7600,
    "▁hazeln": 7601,
    "▁hazelnut": 7602,
    "▁pekat": 7603,
    "▁menginginkan": 7604,
    "▁flas": 7605,
    "▁flash": 7606,
    "xy": 7607,
    "▁menentukan": 7608,
    "luan": 7609,
    "coh": 7610,
    "duduk": 7611,
    "▁leci": 7612,
    "ebutan": 7613,
    "▁mengatur": 7614,
    "intai": 7615,
    "ontr": 7616,
    "▁harta": 7617,
    "▁seram": 7618,
    "▁tax": 7619,
    "▁langkah": 7620,
    "▁tewas": 7621,
    "▁disodorkan": 7622,
    "▁leun": 7623,
    "▁leunca": 7624,
    "▁keterl": 7625,
    "yor": 7626,
    "▁menunjang": 7627,
    "▁bua": 7628,
    "▁buaya": 7629,
    "umbangkan": 7630,
    "▁jeb": 7631,
    "los": 7632,
    "▁extra": 7633,
    "▁jerman": 7634,
    "▁kere": 7635,
    "▁mendidik": 7636,
    "▁mmm": 7637,
    "tok": 7638,
    "▁runner": 7639,
    "▁back": 7640,
    "▁tembus": 7641,
    "▁kerumah": 7642,
    "▁transfer": 7643,
    "▁volcan": 7644,
    "▁volcano": 7645,
    "kongkow": 7646,
    "▁dipenj": 7647,
    "▁lengser": 7648,
    "wakan": 7649,
    "▁pola": 7650,
    "▁atap": 7651,
    "onc": 7652,
    "▁angklung": 7653,
    "▁deklarasi": 7654,
    "▁usia": 7655,
    "igit": 7656,
    "▁lips": 7657,
    "▁dikat": 7658,
    "▁cancel": 7659,
    "▁soda": 7660,
    "▁tahap": 7661,
    "▁meik": 7662,
    "▁meikarta": 7663,
    "ica": 7664,
    "utaran": 7665,
    "▁tinggalkan": 7666,
    "▁branding": 7667,
    "▁berni": 7668,
    "▁berniat": 7669,
    "▁panci": 7670,
    "▁dipikir": 7671,
    "▁diingat": 7672,
    "▁meme": 7673,
    "ampi": 7674,
    "▁channel": 7675,
    "▁pg": 7676,
    "▁pelosok": 7677,
    "▁maklumlah": 7678,
    "▁50k": 7679,
    "▁penghianat": 7680,
    "▁sirup": 7681,
    "hop": 7682,
    "▁tauh": 7683,
    "▁tauhid": 7684,
    "▁best": 7685,
    "▁port": 7686,
    "▁menyusuri": 7687,
    "▁mewujud": 7688,
    "▁mewujudkan": 7689,
    "▁membangk": 7690,
    "▁membangkitkan": 7691,
    "▁galak": 7692,
    "▁coco": 7693,
    "▁kara": 7694,
    "▁motif": 7695,
    "▁biarpun": 7696,
    "▁mulyani": 7697,
    "▁sumbi": 7698,
    "▁aturan": 7699,
    "▁nyunda": 7700,
    "▁asa": 7701,
    "▁keok": 7702,
    "▁well": 7703,
    "▁dilap": 7704,
    "ld": 7705,
    "▁berti": 7706,
    "▁dihias": 7707,
    "▁didekor": 7708,
    "▁begitulah": 7709,
    "▁class": 7710,
    "▁bias": 7711,
    "▁wad": 7712,
    "▁duet": 7713,
    "▁seneng": 7714,
    "▁sediakan": 7715,
    "ection": 7716,
    "▁mantaplah": 7717,
    "▁31": 7718,
    "▁wu": 7719,
    "▁dimanjakan": 7720,
    "br": 7721,
    "▁ketim": 7722,
    "weet": 7723,
    "▁arang": 7724,
    "▁penulis": 7725,
    "▁ditindak": 7726,
    "▁bubuk": 7727,
    "▁inter": 7728,
    "▁selesaikan": 7729,
    "▁reserved": 7730,
    "▁36": 7731,
    "▁berkembang": 7732,
    "▁souvenir": 7733,
    "tempat": 7734,
    "▁kurir": 7735,
    "▁hukuman": 7736,
    "isasikan": 7737,
    "▁upaya": 7738,
    "▁tekanan": 7739,
    "▁show": 7740,
    "uluh": 7741,
    "▁eng": 7742,
    "▁selamanya": 7743,
    "▁mengga": 7744,
    "▁nyal": 7745,
    "▁diwar": 7746,
    "▁diwarnai": 7747,
    "▁eksepsi": 7748,
    "▁elektr": 7749,
    "▁krist": 7750,
    "▁gayo": 7751,
    "jian": 7752,
    "▁tauco": 7753,
    "▁dilalui": 7754,
    "▁brandal": 7755,
    "▁lega": 7756,
    "▁beeh": 7757,
    "▁beehi": 7758,
    "▁beehive": 7759,
    "▁berpr": 7760,
    "uit": 7761,
    "▁lembab": 7762,
    "▁dadakan": 7763,
    "▁semahal": 7764,
    "▁ketak": 7765,
    "▁ty": 7766,
    "▁tyson": 7767,
    "rasari": 7768,
    "▁etc": 7769,
    "raw": 7770,
    "▁197": 7771,
    "▁visit": 7772,
    "ful": 7773,
    "▁kepuasan": 7774,
    "kop": 7775,
    "▁pinus": 7776,
    "▁doki": 7777,
    "▁meds": 7778,
    "▁medsos": 7779,
    "▁transjakarta": 7780,
    "▁onion": 7781,
    "▁pc": 7782,
    "▁cub": 7783,
    "▁cubit": 7784,
    "▁laknat": 7785,
    "▁55": 7786,
    "▁kedap": 7787,
    "▁kedip": 7788,
    "▁garuda": 7789,
    "▁digemari": 7790,
    "idat": 7791,
    "mart": 7792,
    "▁menampilkan": 7793,
    "▁gemar": 7794,
    "▁dibayangkan": 7795,
    "kot": 7796,
    "oboyo": 7797,
    "▁pergantian": 7798,
    "▁genj": 7799,
    "▁genjer": 7800,
    "meja": 7801,
    "▁buih": 7802,
    "uman": 7803,
    "▁telpon": 7804,
    "▁digadang": 7805,
    "▁menjalan": 7806,
    "▁ball": 7807,
    "▁melindungi": 7808,
    "▁mall": 7809,
    "▁nota": 7810,
    "ampuan": 7811,
    "▁diserang": 7812,
    "▁catatan": 7813,
    "▁endus": 7814,
    "▁makar": 7815,
    "eki": 7816,
    "▁khat": 7817,
    "▁pdam": 7818,
    "▁cg": 7819,
    "▁cgv": 7820,
    "itz": 7821,
    "omeus": 7822,
    "umble": 7823,
    "▁perlakuan": 7824,
    "▁segel": 7825,
    "▁menghir": 7826,
    "▁menghirup": 7827,
    "▁kian": 7828,
    "▁jongos": 7829,
    "▁dungu": 7830,
    "▁reklamasi": 7831,
    "▁dec": 7832,
    "sing": 7833,
    "▁akustik": 7834,
    "▁penjaj": 7835,
    "▁penjajahan": 7836,
    "▁memer": 7837,
    "▁eas": 7838,
    "▁november": 7839,
    "ajukan": 7840,
    "▁konf": 7841,
    "▁konflik": 7842,
    "▁anjir": 7843,
    "▁perlengkapan": 7844,
    "▁judes": 7845,
    "▁pantesan": 7846,
    "egal": 7847,
    "▁kejahatan": 7848,
    "ekian": 7849,
    "val": 7850,
    "▁subr": 7851,
    "▁subroto": 7852,
    "▁layo": 7853,
    "▁layout": 7854,
    "▁panggilan": 7855,
    "▁terkur": 7856,
    "▁terkuras": 7857,
    "▁lotion": 7858,
    "bumbu": 7859,
    "ereskan": 7860,
    "▁diinginkan": 7861,
    "▁diperbanyak": 7862,
    "▁maxi": 7863,
    "▁fren": 7864,
    "▁french": 7865,
    "▁menempuh": 7866,
    "▁uji": 7867,
    "▁cewek": 7868,
    "siapa": 7869,
    "▁tubuh": 7870,
    "▁brunch": 7871,
    "▁rames": 7872,
    "▁complim": 7873,
    "▁cad": 7874,
    "▁andai": 7875,
    "▁merogoh": 7876,
    "▁even": 7877,
    "▁serupa": 7878,
    "▁gour": 7879,
    "▁gourm": 7880,
    "▁gourmet": 7881,
    "▁bitter": 7882,
    "▁secangkir": 7883,
    "▁kertas": 7884,
    "▁ia": 7885,
    "kohol": 7886,
    "▁pelop": 7887,
    "▁pelopor": 7888,
    "▁bermunc": 7889,
    "▁bermunculan": 7890,
    "▁mendadak": 7891,
    "▁eksek": 7892,
    "utif": 7893,
    "▁perkembangan": 7894,
    "egang": 7895,
    "▁65": 7896,
    "▁romantic": 7897,
    "▁pengembalian": 7898,
    "▁bond": 7899,
    "▁asmat": 7900,
    "▁prancis": 7901,
    "▁menghormati": 7902,
    "amart": 7903,
    "yan": 7904,
    "▁trop": 7905,
    "awanan": 7906,
    "▁bala": 7907,
    "▁membohongi": 7908,
    "▁lam": 7909,
    "▁ong": 7910,
    "▁brokoli": 7911,
    "▁terbiasa": 7912,
    "▁pdi": 7913,
    "▁mendekat": 7914,
    "▁reformasi": 7915,
    "▁gokana": 7916,
    "ampo": 7917,
    "▁hdl": 7918,
    "ero": 7919,
    "▁berempat": 7920,
    "▁menantang": 7921,
    "iiii": 7922,
    "▁berfungsi": 7923,
    "▁travell": 7924,
    "▁waiting": 7925,
    "▁mca": 7926,
    "▁sampaikan": 7927,
    "▁karen": 7928,
    "▁bpj": 7929,
    "▁bpjs": 7930,
    "▁herbal": 7931,
    "▁rahm": 7932,
    "▁pencuri": 7933,
    "▁perangi": 7934,
    "▁cemas": 7935,
    "ihad": 7936,
    "▁transp": 7937,
    "▁transparan": 7938,
    "▁pandang": 7939,
    "▁srika": 7940,
    "▁srikaya": 7941,
    "▁netiz": 7942,
    "▁netizen": 7943,
    "▁dahsyat": 7944,
    "▁konsumsi": 7945,
    "▁berlangsung": 7946,
    "▁side": 7947,
    "▁mashed": 7948,
    "▁gunakan": 7949,
    "vet": 7950,
    "▁lava": 7951,
    "▁og": 7952,
    "▁ii": 7953,
    "▁barn": 7954,
    "▁provokator": 7955,
    "▁menusuk": 7956,
    "▁terjamin": 7957,
    "▁kesej": 7958,
    "▁bre": 7959,
    "▁penyak": 7960,
    "▁penyakit": 7961,
    "▁ceramah": 7962,
    "▁duper": 7963,
    "▁situasi": 7964,
    "impi": 7965,
    "▁muntah": 7966,
    "▁kandang": 7967,
    "▁baraga": 7968,
    "▁ground": 7969,
    "itusi": 7970,
    "▁prakt": 7971,
    "▁praktis": 7972,
    "▁konst": 7973,
    "ning": 7974,
    "▁kemana": 7975,
    "▁artistik": 7976,
    "entikan": 7977,
    "jaya": 7978,
    "▁sebarkan": 7979,
    "▁angkat": 7980,
    "oduksi": 7981,
    "▁international": 7982,
    "▁austr": 7983,
    "ews": 7984,
    "inang": 7985,
    "▁saracen": 7986,
    "▁terbanyak": 7987,
    "▁pandangan": 7988,
    "▁melanda": 7989,
    "▁pernyata": 7990,
    "▁pernyataan": 7991,
    "▁berpengaruh": 7992,
    "ank": 7993,
    "anjal": 7994,
    "▁merapi": 7995,
    "akkan": 7996,
    "▁ifum": 7997,
    "▁ifumie": 7998,
    "▁golongan": 7999,
    "rumah": 8000,
    "▁mostly": 8001,
    "▁chinesse": 8002,
    "▁bertema": 8003,
    "▁menyerukan": 8004,
    "▁terkena": 8005,
    "▁buncis": 8006,
    "▁creamy": 8007,
    "▁kolonel": 8008,
    "▁secepat": 8009,
    "▁secepatnya": 8010,
    "sn": 8011,
    "▁melebih": 8012,
    "▁melebihi": 8013,
    "▁berdiam": 8014,
    "eter": 8015,
    "arl": 8016,
    "▁vivo": 8017,
    "▁spons": 8018,
    "▁sponsor": 8019,
    "▁ahmad": 8020,
    "▁diad": 8021,
    "▁shash": 8022,
    "▁krispy": 8023,
    "▁honey": 8024,
    "▁berseb": 8025,
    "▁buy": 8026,
    "▁kus": 8027,
    "▁yudhoyono": 8028,
    "afs": 8029,
    "▁homie": 8030,
    "▁lod": 8031,
    "▁mabuk": 8032,
    "▁ideal": 8033,
    "▁malahan": 8034,
    "▁lelaki": 8035,
    "▁indri": 8036,
    "▁reza": 8037,
    "▁keep": 8038,
    "▁micin": 8039,
    "▁ten": 8040,
    "▁sumber": 8041,
    "▁cawapres": 8042,
    "▁nasa": 8043,
    "▁nasabah": 8044,
    "▁peminat": 8045,
    "▁aspar": 8046,
    "▁asparagus": 8047,
    "▁tir": 8048,
    "▁pink": 8049,
    "▁white": 8050,
    "▁repub": 8051,
    "angani": 8052,
    "▁abal": 8053,
    "▁kudus": 8054,
    "▁tambahkan": 8055,
    "apati": 8056,
    "▁bengk": 8057,
    "▁adonan": 8058,
    "▁pembuatan": 8059,
    "▁gramedia": 8060,
    "▁permata": 8061,
    "▁kupon": 8062,
    "▁andro": 8063,
    "▁android": 8064,
    "▁basic": 8065,
    "▁patty": 8066,
    "▁senja": 8067,
    "lahan": 8068,
    "▁aki": 8069,
    "▁dipastikan": 8070,
    "▁grinningfacewithb": 8071,
    "▁grinningfacewithbig": 8072,
    "▁grinningfacewithbigeyes": 8073,
    "▁call": 8074,
    "▁folded": 8075,
    "▁foldedhands": 8076,
    "▁lembek": 8077,
    "inum": 8078,
    "▁pakta": 8079,
    "▁integritas": 8080,
    "▁monot": 8081,
    "▁monoton": 8082,
    "▁taro": 8083,
    "▁mewakili": 8084,
    "▁psik": 8085,
    "▁penganan": 8086,
    "▁menangis": 8087,
    "▁aut": 8088,
    "▁dipertim": 8089,
    "▁dipertimbangkan": 8090,
    "▁apapun": 8091,
    "▁ciamik": 8092,
    "▁cul": 8093,
    "wang": 8094,
    "▁menyejukkan": 8095,
    "uuh": 8096,
    "▁nadi": 8097,
    "▁post": 8098,
    "▁gan": 8099,
    "▁tud": 8100,
    "▁survey": 8101,
    "▁charge": 8102,
    "▁has": 8103,
    "endar": 8104,
    "▁tofu": 8105,
    "▁95": 8106,
    "evisi": 8107,
    "▁berjil": 8108,
    "▁pesona": 8109,
    "▁takjub": 8110,
    "▁cerah": 8111,
    "buahan": 8112,
    "▁fettu": 8113,
    "▁perab": 8114,
    "swe": 8115,
    "▁pram": 8116,
    "▁pernak": 8117,
    "ehat": 8118,
    "▁perancis": 8119,
    "unga": 8120,
    "▁penanganan": 8121,
    "▁perpec": 8122,
    "▁perpecahan": 8123,
    "resto": 8124,
    "▁heheheh": 8125,
    "▁mengulang": 8126,
    "bau": 8127,
    "▁mui": 8128,
    "▁beasis": 8129,
    "▁beasiswa": 8130,
    "pe": 8131,
    "▁sebagus": 8132,
    "▁warni": 8133,
    "ison": 8134,
    "▁mengut": 8135,
    "alog": 8136,
    "▁alangkah": 8137,
    "▁gofood": 8138,
    "▁emang": 8139,
    "▁perfor": 8140,
    "▁franchise": 8141,
    "▁sugar": 8142,
    "▁pamer": 8143,
    "▁songong": 8144,
    "▁perhatikan": 8145,
    "▁panor": 8146,
    "▁kekenyangan": 8147,
    "▁suap": 8148,
    "▁peringkat": 8149,
    "pay": 8150,
    "▁soka": 8151,
    "▁begitupun": 8152,
    "olehkan": 8153,
    "▁guru": 8154,
    "etakkan": 8155,
    "▁moc": 8156,
    "▁ambian": 8157,
    "▁ambiance": 8158,
    "▁kudu": 8159,
    "▁bibir": 8160,
    "▁nyaris": 8161,
    "▁energi": 8162,
    "iken": 8163,
    "▁terfavorit": 8164,
    "▁kuli": 8165,
    "▁subsidi": 8166,
    "▁sedikitpun": 8167,
    "▁sago": 8168,
    "▁barusan": 8169,
    "▁minang": 8170,
    "▁kebohongan": 8171,
    "▁gelisah": 8172,
    "▁kontak": 8173,
    "▁jamblang": 8174,
    "wir": 8175,
    "▁turut": 8176,
    "▁tergoda": 8177,
    "▁kenceng": 8178,
    "▁tabungan": 8179,
    "▁77": 8180,
    "rim": 8181,
    "▁plain": 8182,
    "▁sumbu": 8183,
    "lainnya": 8184,
    "▁nol": 8185,
    "▁pendek": 8186,
    "▁line": 8187,
    "▁tolonglah": 8188,
    "▁melarang": 8189,
    "▁bunyi": 8190,
    "latan": 8191,
    "▁opini": 8192,
    "▁diin": 8193,
    "▁break": 8194,
    "▁stor": 8195,
    "▁mengandalkan": 8196,
    "▁berbuat": 8197,
    "▁prob": 8198,
    "anjur": 8199,
    "▁lereng": 8200,
    "▁persek": 8201,
    "enger": 8202,
    "▁terderloin": 8203,
    "▁menghidangkan": 8204,
    "entine": 8205,
    "2an": 8206,
    "▁bapa": 8207,
    "▁bapao": 8208,
    "oss": 8209,
    "▁bacang": 8210,
    "zar": 8211,
    "▁direkomendasi": 8212,
    "▁pisau": 8213,
    "▁arg": 8214,
    "▁pengamanan": 8215,
    "▁happening": 8216,
    "▁terbantu": 8217,
    "▁mengembalikan": 8218,
    "waj": 8219,
    "wajib": 8220,
    "▁licik": 8222,
    "▁gerombolan": 8223,
    "▁berko": 8224,
    "▁biang": 8225,
    "▁pemuda": 8226,
    "▁dendeng": 8227,
    "▁kecoak": 8228,
    "▁batas": 8229,
    "elihara": 8230,
    "iptakan": 8231,
    "▁berburu": 8232,
    "▁penang": 8233,
    "▁lamp": 8234,
    "▁outdoor": 8235,
    "▁anas": 8236,
    "▁jajaran": 8237,
    "▁inul": 8238,
    "anduk": 8239,
    "▁hijab": 8240,
    "▁graha": 8241,
    "▁lari": 8242,
    "▁keluarkan": 8243,
    "▁pran": 8244,
    "▁pranowo": 8245,
    "▁purbas": 8246,
    "▁purbasari": 8247,
    "▁person": 8248,
    "▁galery": 8249,
    "umpung": 8250,
    "▁waspada": 8251,
    "▁candle": 8252,
    "tanya": 8253,
    "utkan": 8254,
    "▁tonj": 8255,
    "▁tonjok": 8256,
    "▁pangk": 8257,
    "anting": 8258,
    "▁power": 8259,
    "▁bulanan": 8260,
    "▁fui": 8261,
    "▁ketahui": 8262,
    "▁nyepi": 8263,
    "▁pejuang": 8264,
    "▁25k": 8265,
    "▁jutaan": 8266,
    "▁fisik": 8267,
    "▁mainstream": 8268,
    "ester": 8269,
    "▁ront": 8270,
    "▁suasanya": 8271,
    "▁sharing": 8272,
    "▁sekot": 8273,
    "▁sekoteng": 8274,
    "▁tenaga": 8275,
    "▁dinda": 8276,
    "▁cibadak": 8277,
    "▁crew": 8278,
    "▁sepoi": 8279,
    "epaskan": 8280,
    "onald": 8281,
    "▁pendeta": 8282,
    "▁sah": 8283,
    "▁datar": 8284,
    "udin": 8285,
    "▁exper": 8286,
    "▁experience": 8287,
    "▁gantung": 8288,
    "▁keberh": 8289,
    "▁keberhasil": 8290,
    "▁keberhasilan": 8291,
    "emo": 8292,
    "▁keparat": 8293,
    "▁beber": 8294,
    "▁bidang": 8295,
    "▁mertua": 8296,
    "madi": 8297,
    "▁public": 8298,
    "▁diker": 8299,
    "▁royal": 8300,
    "▁mencolok": 8301,
    "▁smoked": 8302,
    "▁085": 8303,
    "▁membalas": 8304,
    "▁tingkah": 8305,
    "▁difoto": 8306,
    "▁disamp": 8307,
    "▁disampaikan": 8308,
    "▁wc": 8309,
    "▁cro": 8310,
    "▁efisi": 8311,
    "▁efisien": 8312,
    "▁brownis": 8313,
    "antum": 8314,
    "▁record": 8315,
    "▁ojolali": 8316,
    "va": 8317,
    "▁taktik": 8318,
    "▁digital": 8319,
    "▁pertigaan": 8320,
    "▁jado": 8321,
    "▁jadoel": 8322,
    "▁mit": 8323,
    "saud": 8324,
    "saudara": 8325,
    "▁conn": 8326,
    "inggung": 8327,
    "▁pelanc": 8328,
    "▁pelancong": 8329,
    "tek": 8330,
    "▁musuh": 8331,
    "▁kado": 8332,
    "▁pref": 8333,
    "▁prefer": 8334,
    "▁trend": 8335,
    "▁ternama": 8336,
    "▁ketemu": 8337,
    "▁kabin": 8338,
    "▁kabinet": 8339,
    "▁last": 8340,
    "▁cik": 8341,
    "▁addict": 8342,
    "▁addictea": 8343,
    "▁sear": 8344,
    "indones": 8345,
    "indonesia": 8346,
    "▁kelar": 8347,
    "▁hamparan": 8348,
    "▁expres": 8349,
    "ingface": 8350,
    "▁tagline": 8351,
    "▁diaw": 8352,
    "▁im3": 8353,
    "▁nasionalis": 8354,
    "play": 8355,
    "▁lazada": 8356,
    "▁pancong": 8357,
    "▁timbangan": 8358,
    "▁bagaikan": 8359,
    "▁menyebarkan": 8360,
    "▁taburan": 8361,
    "▁luarbiasa": 8362,
    "▁aktivasi": 8363,
    "tahun": 8364,
    "▁benda": 8365,
    "▁peach": 8366,
    "▁kerak": 8367,
    "▁mempesona": 8368,
    "▁konsistensi": 8369,
    "▁kpu": 8370,
    "▁ditelpon": 8371,
    "▁cika": 8372,
    "▁cikawa": 8373,
    "▁cikawao": 8374,
    "▁berkat": 8375,
    "▁semula": 8376,
    "unk": 8377,
    "▁veteran": 8378,
    "▁krisis": 8379,
    "▁pia": 8380,
    "▁betapa": 8381,
    "▁stall": 8382,
    "▁pasca": 8383,
    "abel": 8384,
    "atasi": 8385,
    "▁anggrek": 8386,
    "▁sg": 8387,
    "▁supir": 8388,
    "▁berpat": 8389,
    "▁berpatutan": 8390,
    "▁diteman": 8391,
    "▁distr": 8392,
    "itor": 8393,
    "▁banten": 8394,
    "▁dirjen": 8395,
    "apian": 8396,
    "hub": 8397,
    "▁rail": 8398,
    "▁puti": 8399,
    "▁setempat": 8400,
    "▁yakul": 8401,
    "ming": 8402,
    "▁high": 8403,
    "▁afd": 8404,
    "▁afdol": 8405,
    "▁sayap": 8406,
    "▁revol": 8407,
    "▁revolusi": 8408,
    "▁miris": 8409,
    "▁lamban": 8410,
    "▁relative": 8411,
    "▁sweeping": 8412,
    "▁memaki": 8413,
    "▁aris": 8414,
    "▁jonru": 8415,
    "▁bakaran": 8416,
    "▁papan": 8417,
    "alia": 8418,
    "▁delu": 8419,
    "▁delux": 8420,
    "▁deluxe": 8421,
    "▁diz": 8422,
    "▁auto": 8423,
    "▁hongkong": 8424,
    "▁delight": 8425,
    "▁ite": 8426,
    "adapan": 8427,
    "▁unggulan": 8428,
    "ayam": 8429,
    "▁hn": 8430,
    "▁dimainkan": 8431,
    "▁menganggu": 8432,
    "▁tindak": 8433,
    "▁simbol": 8434,
    "▁panik": 8435,
    "▁kib": 8436,
    "▁jurus": 8437,
    "▁mempan": 8438,
    "ancing": 8439,
    "▁100k": 8440,
    "▁cabut": 8441,
    "▁syst": 8442,
    "▁system": 8443,
    "▁inc": 8444,
    "▁mual": 8445,
    "ebatan": 8446,
    "▁unlim": 8447,
    "▁unlimited": 8448,
    "oki": 8449,
    "▁bahas": 8450,
    "▁membah": 8451,
    "▁sebar": 8452,
    "▁keberadaan": 8453,
    "▁melengkapi": 8454,
    "▁pengantaran": 8455,
    "▁mengagumi": 8456,
    "▁indom": 8457,
    "arsa": 8458,
    "▁heritage": 8459,
    "▁dibubarkan": 8460,
    "▁komnas": 8461,
    "▁penip": 8462,
    "▁penipuan": 8463,
    "▁prediksi": 8464,
    "▁denny": 8465,
    "▁gir": 8466,
    "▁telak": 8467,
    "▁sale": 8468,
    "gerai": 8469,
    "▁tipikal": 8470,
    "▁keperluan": 8471,
    "▁rhum": 8472,
    "▁semasa": 8473,
    "▁strawberry": 8474,
    "▁siniii": 8475,
    "ontrol": 8476,
    "▁dipol": 8477,
    "isikan": 8478,
    "▁suharto": 8479,
    "ewah": 8480,
    "aurant": 8481,
    "▁cangkang": 8482,
    "rap": 8483,
    "▁triple": 8485,
    "▁gadis": 8486,
    "▁tembok": 8487,
    "losan": 8488,
    "▁irish": 8489,
    "▁sweet": 8490,
    "▁seuh": 8491,
    "▁seuhah": 8492,
    "▁dikur": 8493,
    "▁dikurangi": 8494,
    "▁kg": 8495,
    "▁dilah": 8496,
    "usuri": 8497,
    "ibatan": 8498,
    "▁gesit": 8499,
    "▁hong": 8500,
    "kota": 8501,
    "▁becak": 8502,
    "▁berlimpah": 8503,
    "atar": 8504,
    "▁pasupati": 8505,
    "▁pendingin": 8506,
    "▁petis": 8507,
    "▁spin": 8508,
    "▁tisu": 8509,
    "▁kereen": 8510,
    "▁pengisian": 8511,
    "erak": 8512,
    "▁gerakan": 8513,
    "car": 8514,
    "▁jack": 8515,
    "▁rare": 8516,
    "▁metro": 8517,
    "▁3000": 8518,
    "▁revisi": 8519,
    "▁kiwi": 8520,
    "▁dipaksakan": 8521,
    "▁restart": 8522,
    "▁perdag": 8523,
    "▁perdagangan": 8524,
    "▁dipenjara": 8525,
    "▁tito": 8526,
    "akbar": 8527,
    "▁kebing": 8528,
    "▁kebingungan": 8529,
    "▁berusia": 8530,
    "▁mempr": 8531,
    "▁searah": 8532,
    "esek": 8533,
    "▁memperbaiki": 8534,
    "▁berdo": 8535,
    "▁berdoa": 8536,
    "▁membunuh": 8537,
    "ogi": 8538,
    "▁waiters": 8539,
    "▁andri": 8540,
    "▁pesant": 8541,
    "▁pesantren": 8542,
    "ente": 8543,
    "▁rocky": 8544,
    "▁any": 8545,
    "▁kid": 8546,
    "▁ngantri": 8547,
    "▁diberit": 8548,
    "buk": 8549,
    "▁elegan": 8550,
    "▁gasi": 8551,
    "▁gasibu": 8552,
    "▁bacem": 8553,
    "▁perkamp": 8554,
    "▁perkampungan": 8555,
    "▁menggigit": 8556,
    "atih": 8557,
    "▁sepenuh": 8558,
    "▁mud": 8559,
    "▁keis": 8560,
    "jaitan": 8561,
    "▁jangkung": 8562,
    "▁amanah": 8563,
    "omod": 8564,
    "▁nila": 8565,
    "warung": 8566,
    "▁diharapkan": 8567,
    "asalan": 8568,
    "▁sangan": 8569,
    "▁produksi": 8570,
    "▁kwetiauw": 8571,
    "▁sela": 8572,
    "▁hadiri": 8573,
    "▁temoat": 8574,
    "▁pertahankan": 8575,
    "bit": 8576,
    "land": 8577,
    "▁cep": 8578,
    "▁ligh": 8579,
    "▁lighting": 8580,
    "▁nyalon": 8581,
    "▁azab": 8582,
    "▁sont": 8583,
    "▁sontol": 8584,
    "▁sontoloyo": 8585,
    "▁dimusnahkan": 8586,
    "▁walo": 8587,
    "aci": 8588,
    "agar": 8589,
    "kur": 8590,
    "kursi": 8591,
    "▁date": 8592,
    "▁there": 8593,
    "▁menghi": 8594,
    "▁menghiasi": 8595,
    "▁yell": 8596,
    "▁yellow": 8597,
    "▁berst": 8598,
    "encanakan": 8599,
    "▁rico": 8600,
    "▁meningkatkan": 8601,
    "▁tiong": 8602,
    "▁garis": 8603,
    "acau": 8604,
    "▁gerak": 8605,
    "andal": 8606,
    "banyaknya": 8607,
    "▁fh": 8608,
    "▁welld": 8609,
    "▁welldone": 8610,
    "▁world": 8611,
    "▁oy": 8612,
    "▁disamping": 8613,
    "▁didekorasi": 8614,
    "▁merata": 8615,
    "▁atasan": 8616,
    "▁ular": 8617,
    "sea": 8618,
    "▁waduh": 8619,
    "▁yahud": 8620,
    "▁lalang": 8621,
    "▁magi": 8622,
    "▁magic": 8623,
    "hon": 8624,
    "▁ketimbang": 8625,
    "▁tekn": 8626,
    "▁kelew": 8627,
    "▁kelewatan": 8628,
    "▁geng": 8629,
    "▁bantai": 8630,
    "▁garmen": 8631,
    "▁novel": 8632,
    "▁hos": 8633,
    "▁pure": 8634,
    "▁pick": 8635,
    "lanjut": 8636,
    "lanjuti": 8637,
    "▁pieces": 8638,
    "▁tei": 8639,
    "▁ach": 8640,
    "▁achmad": 8641,
    "▁terpilih": 8642,
    "pilih": 8643,
    "▁vis": 8644,
    "▁moment": 8645,
    "▁hina": 8646,
    "spirasi": 8647,
    "▁capucin": 8648,
    "▁capucinno": 8649,
    "▁mulus": 8650,
    "▁soun": 8651,
    "▁famous": 8652,
    "eal": 8653,
    "▁elit": 8654,
    "pas": 8655,
    "▁calamari": 8656,
    "▁reda": 8657,
    "lish": 8658,
    "▁ditumb": 8659,
    "▁average": 8660,
    "▁pent": 8661,
    "▁ayunan": 8662,
    "▁parl": 8663,
    "▁parlemen": 8664,
    "▁peramp": 8665,
    "▁nyaleg": 8666,
    "▁barangk": 8667,
    "▁barangkali": 8668,
    "▁simple": 8669,
    "▁syukur": 8670,
    "▁solaria": 8671,
    "▁elektron": 8672,
    "▁elektronik": 8673,
    "▁azan": 8674,
    "▁misi": 8675,
    "▁kristenis": 8676,
    "▁kristenisasi": 8677,
    "opi": 8678,
    "▁menyalah": 8679,
    "▁donburi": 8680,
    "▁faedah": 8681,
    "▁schn": 8682,
    "▁schnit": 8683,
    "eed": 8684,
    "▁point": 8685,
    "▁menguas": 8686,
    "▁menguasai": 8687,
    "▁terpuaskan": 8688,
    "▁kacam": 8689,
    "▁kacamata": 8690,
    "▁mengolah": 8691,
    "▁metode": 8692,
    "▁ded": 8693,
    "▁segede": 8694,
    "▁mengharapkan": 8695,
    "▁kbps": 8696,
    "▁link": 8697,
    "elly": 8698,
    "cc": 8699,
    "▁teng": 8700,
    "▁warkop": 8701,
    "hangat": 8702,
    "▁matte": 8703,
    "▁think": 8704,
    "▁delapan": 8705,
    "▁esok": 8706,
    "▁tumisan": 8707,
    "▁kub": 8708,
    "▁dicoc": 8709,
    "▁dicocol": 8710,
    "▁kejam": 8711,
    "▁dius": 8712,
    "iw": 8713,
    "▁menegur": 8714,
    "▁bingit": 8715,
    "▁mangkrak": 8716,
    "ject": 8717,
    "oner": 8718,
    "ileks": 8719,
    "▁pemkot": 8720,
    "▁suroboyo": 8721,
    "▁perkir": 8722,
    "▁perkiraan": 8723,
    "▁goyob": 8724,
    "▁goyobod": 8725,
    "gadang": 8726,
    "▁kompak": 8727,
    "engkar": 8728,
    "oman": 8729,
    "▁titip": 8730,
    "▁reserve": 8731,
    "▁dibagian": 8732,
    "▁kemampuan": 8733,
    "▁memperk": 8734,
    "▁berkend": 8735,
    "▁kuc": 8736,
    "▁wowo": 8737,
    "▁rezeki": 8738,
    "▁stok": 8739,
    "▁butuhkan": 8740,
    "atalkan": 8741,
    "▁blitz": 8742,
    "▁murni": 8743,
    "▁menghitung": 8744,
    "▁silat": 8745,
    "▁silaturah": 8746,
    "▁arogan": 8747,
    "▁wara": 8748,
    "▁freezer": 8749,
    "▁menyed": 8750,
    "▁menyedihkan": 8751,
    "▁dakken": 8752,
    "▁sipil": 8753,
    "▁akang": 8754,
    "▁raks": 8755,
    "▁raksasa": 8756,
    "ngobrol": 8757,
    "▁ratus": 8758,
    "▁kebangga": 8759,
    "▁kebanggaan": 8760,
    "▁kemew": 8761,
    "▁kemewahan": 8762,
    "alem": 8763,
    "▁07": 8764,
    "firullah": 8765,
    "▁bernilai": 8766,
    "▁browsing": 8767,
    "▁jantung": 8768,
    "▁kuali": 8769,
    "▁ampas": 8770,
    "▁2013": 8771,
    "▁pondokan": 8772,
    "sedikit": 8773,
    "▁cakap": 8774,
    "intik": 8775,
    "▁beranjak": 8776,
    "▁sc": 8777,
    "rip": 8778,
    "▁goyang": 8779,
    "▁kesekian": 8780,
    "etus": 8781,
    "▁pender": 8782,
    "▁penderitaan": 8783,
    "▁intol": 8784,
    "▁terbuang": 8785,
    "▁omelette": 8786,
    "▁bersamaan": 8787,
    "▁cing": 8788,
    "▁sanger": 8789,
    "▁kepanjangan": 8790,
    "▁milo": 8791,
    "essor": 8792,
    "▁soer": 8793,
    "▁teteh": 8794,
    "▁aduhai": 8795,
    "▁cicipi": 8796,
    "▁diadakan": 8797,
    "▁hard": 8798,
    "▁b2": 8799,
    "▁kli": 8800,
    "▁klien": 8801,
    "▁gembira": 8802,
    "▁tertera": 8803,
    "▁berukuran": 8804,
    "▁berny": 8805,
    "▁bernyanyi": 8806,
    "come": 8807,
    "▁pesto": 8808,
    "▁rang": 8809,
    "▁dibeb": 8810,
    "▁kandung": 8811,
    "▁robus": 8812,
    "▁robusta": 8813,
    "▁wir": 8814,
    "▁putar": 8815,
    "▁kelip": 8816,
    "pula": 8817,
    "▁dosa": 8818,
    "▁menggoyang": 8819,
    "ball": 8820,
    "▁seputaran": 8821,
    "▁pakde": 8822,
    "▁nyapres": 8823,
    "imuti": 8824,
    "▁ramuan": 8825,
    "▁alfred": 8826,
    "▁alfredo": 8827,
    "ook": 8828,
    "▁bh": 8829,
    "▁fuck": 8830,
    "▁supreme": 8831,
    "▁diikuti": 8832,
    "▁larangan": 8833,
    "▁mengucapkan": 8834,
    "▁oris": 8835,
    "▁muti": 8836,
    "▁mutiara": 8837,
    "▁eksekutif": 8838,
    "▁dipegang": 8839,
    "04": 8840,
    "▁190": 8842,
    "▁kepat": 8843,
    "▁kepatihan": 8844,
    "▁amien": 8845,
    "▁memecah": 8846,
    "ejer": 8847,
    "sip": 8848,
    "jih": 8849,
    "▁cengeng": 8850,
    "pohon": 8851,
    "▁alfamart": 8852,
    "▁gesek": 8853,
    "▁melek": 8854,
    "▁khatulis": 8855,
    "▁khatulistiwa": 8856,
    "▁tropic": 8857,
    "abet": 8858,
    "bala": 8859,
    "▁ongkir": 8860,
    "table": 8861,
    "▁hommy": 8862,
    "▁kebi": 8863,
    "▁kebiasaan": 8864,
    "▁kasi": 8865,
    "▁suguhkan": 8866,
    "▁kesa": 8867,
    "kriuk": 8868,
    "▁jonas": 8869,
    "▁bermental": 8870,
    "ungkap": 8871,
    "▁traveler": 8872,
    "▁travelling": 8873,
    "▁hisit": 8874,
    "▁waitinglist": 8875,
    "▁memungkin": 8876,
    "▁memungkinkan": 8877,
    "alth": 8878,
    "▁rahmatan": 8879,
    "▁alamin": 8880,
    "▁mengkr": 8881,
    "▁mengkritik": 8882,
    "▁mengusulkan": 8883,
    "▁pejalan": 8884,
    "▁axis": 8885,
    "▁tumbang": 8886,
    "▁bolog": 8887,
    "▁2010": 8888,
    "▁dipukul": 8889,
    "▁sejuta": 8890,
    "▁pecel": 8891,
    "▁aston": 8892,
    "etok": 8893,
    "iii": 8894,
    "▁tanjakan": 8895,
    "▁abd": 8896,
    "andingkan": 8897,
    "▁babak": 8898,
    "▁lele": 8899,
    "▁news": 8900,
    "▁ibarat": 8901,
    "▁yu": 8902,
    "▁vel": 8903,
    "▁velvet": 8904,
    "▁ogah": 8905,
    "▁messi": 8906,
    "ahap": 8907,
    "▁mantaps": 8908,
    "▁menghar": 8909,
    "▁ciw": 8910,
    "▁deli": 8911,
    "very": 8912,
    "▁tg": 8913,
    "▁kelenteng": 8914,
    "▁kedepan": 8915,
    "▁privat": 8916,
    "agama": 8917,
    "▁life": 8918,
    "▁kesejahtera": 8919,
    "▁kesejahteraan": 8920,
    "▁cucok": 8921,
    "▁palest": 8922,
    "▁palestina": 8923,
    "▁siaran": 8924,
    "▁terr": 8925,
    "▁baguslah": 8926,
    "idasi": 8927,
    "chino": 8928,
    "▁vero": 8929,
    "▁memanjang": 8930,
    "▁isra": 8931,
    "▁israel": 8932,
    "▁ful": 8933,
    "▁kony": 8934,
    "▁konyol": 8935,
    "▁dinning": 8936,
    "▁low": 8937,
    "▁berawal": 8938,
    "▁ditipu": 8939,
    "▁hentikan": 8940,
    "▁disha": 8941,
    "▁dihukum": 8942,
    "▁dilempar": 8943,
    "▁digantung": 8944,
    "▁ketat": 8945,
    "▁syaikhu": 8946,
    "hie": 8947,
    "▁obsession": 8948,
    "▁risoles": 8949,
    "▁cappuccino": 8950,
    "▁pasi": 8951,
    "▁direv": 8952,
    "▁digi": 8953,
    "▁digig": 8954,
    "▁ij": 8955,
    "▁rent": 8956,
    "▁petani": 8957,
    "▁berfikir": 8958,
    "enggelamkan": 8959,
    "▁ditukar": 8960,
    "▁warta": 8961,
    "▁fan": 8962,
    "▁ngaw": 8963,
    "▁than": 8964,
    "▁thanks": 8965,
    "tha": 8966,
    "▁bart": 8967,
    "▁bartender": 8968,
    "▁richard": 8969,
    "▁lt": 8970,
    "▁tugu": 8971,
    "▁beam": 8972,
    "▁beamingfacewith": 8973,
    "▁beamingfacewithsmilingeyes": 8974,
    "▁sekjen": 8975,
    "▁kebenar": 8976,
    "▁kebenaran": 8977,
    "▁redsd": 8978,
    "▁tunt": 8979,
    "▁ambur": 8980,
    "▁amburad": 8981,
    "▁amburadul": 8982,
    "▁bubat": 8983,
    "ecewa": 8984,
    "▁bening": 8985,
    "▁tjend": 8986,
    "▁tjendana": 8987,
    "▁kwalitas": 8988,
    "▁notif": 8989,
    "▁berhak": 8990,
    "▁kehad": 8991,
    "▁kehadiran": 8992,
    "▁cut": 8993,
    "▁sarana": 8994,
    "rr": 8995,
    "tt": 8996,
    "▁sajalah": 8997,
    "▁fave": 8998,
    "▁terper": 8999,
    "▁terpercaya": 9000,
    "▁stik": 9001,
    "itulah": 9002,
    "▁pearl": 9003,
    "▁salahs": 9004,
    "▁salahsatu": 9005,
    "▁pelaks": 9006,
    "▁pelaksanaan": 9007,
    "▁tertulis": 9008,
    "▁citi": 9009,
    "▁plasa": 9010,
    "▁lor": 9011,
    "▁shashlik": 9012,
    "▁cihide": 9013,
    "▁cihideung": 9014,
    "▁berseberangan": 9015,
    "▁dihibur": 9016,
    "▁bambang": 9017,
    "▁acc": 9018,
    "▁management": 9019,
    "▁ahli": 9020,
    "▁syah": 9021,
    "▁tafs": 9022,
    "▁tafsir": 9023,
    "▁uber": 9024,
    "▁warala": 9025,
    "▁waralaba": 9026,
    "▁kelaut": 9027,
    "▁cian": 9028,
    "▁cianjur": 9029,
    "▁btc": 9030,
    "▁selai": 9031,
    "▁01": 9032,
    "▁drink": 9033,
    "▁bereks": 9034,
    "▁yahudi": 9035,
    "▁lolos": 9036,
    "▁perorang": 9037,
    "aca": 9038,
    "▁panti": 9039,
    "▁head": 9040,
    "▁nelayan": 9041,
    "▁sunter": 9042,
    "▁republik": 9043,
    "▁menangani": 9044,
    "abal": 9045,
    "▁iyl": 9046,
    "▁mendaftar": 9047,
    "▁mung": 9048,
    "▁mungil": 9049,
    "▁kedi": 9050,
    "▁kediaman": 9051,
    "▁steam": 9052,
    "▁jomb": 9053,
    "▁dijumpai": 9054,
    "ebrak": 9055,
    "jb": 9056,
    "▁expect": 9057,
    "▁merak": 9058,
    "▁tenggiri": 9059,
    "▁birok": 9060,
    "▁menghibur": 9061,
    "▁segini": 9062,
    "▁lembar": 9063,
    "▁perlahan": 9064,
    "▁dibaca": 9065,
    "▁diperlakukan": 9066,
    "▁victory": 9067,
    "▁victoryhand": 9068,
    "▁sembarangan": 9069,
    "▁memarkir": 9070,
    "▁pending": 9071,
    "▁verifikasi": 9072,
    "▁menggang": 9073,
    "▁menggangu": 9074,
    "▁hormat": 9075,
    "▁karo": 9076,
    "▁hus": 9077,
    "▁rooftop": 9078,
    "▁sunlight": 9079,
    "▁menjulang": 9080,
    "▁bermacet": 9081,
    "▁sco": 9082,
    "▁nakal": 9083,
    "▁ck": 9084,
    "▁mengejar": 9085,
    "▁avon": 9086,
    "▁ditanggapi": 9087,
    "▁170": 9088,
    "▁origami": 9089,
    "▁ciater": 9090,
    "▁pering": 9091,
    "eger": 9092,
    "▁store": 9093,
    "▁pu": 9094,
    "▁menandingi": 9095,
    "▁mengendar": 9096,
    "▁mengendarai": 9097,
    "▁bangkai": 9098,
    "▁petisi": 9099,
    "▁tt": 9100,
    "▁berli": 9101,
    "vo": 9102,
    "▁dicob": 9103,
    "▁televisi": 9104,
    "▁modifikasi": 9105,
    "▁kerac": 9106,
    "▁keracunan": 9107,
    "dingin": 9108,
    "▁seindah": 9109,
    "▁imlek": 9110,
    "agum": 9111,
    "▁komunitas": 9112,
    "jil": 9113,
    "▁diatur": 9114,
    "▁chili": 9115,
    "▁fettucini": 9116,
    "▁nikmatin": 9117,
    "sweat": 9118,
    "▁pramus": 9119,
    "▁pramusaji": 9120,
    "▁sag": 9121,
    "lion": 9122,
    "▁menyaksikan": 9123,
    "▁cy": 9124,
    "▁cyber": 9125,
    "▁dalang": 9126,
    "film": 9127,
    "▁syam": 9128,
    "▁ujian": 9129,
    "▁vihara": 9130,
    "▁pemakaian": 9131,
    "▁waw": 9132,
    "▁kasur": 9133,
    "inca": 9134,
    "▁fast": 9135,
    "▁erd": 9136,
    "▁lomba": 9137,
    "▁memutar": 9138,
    "iranya": 9139,
    "▁swal": 9140,
    "▁swalayan": 9141,
    "▁piknik": 9142,
    "▁tamas": 9143,
    "▁tamasya": 9144,
    "▁ditonton": 9145,
    "lean": 9146,
    "▁maison": 9147,
    "▁bogeri": 9148,
    "▁maki": 9149,
    "▁membuk": 9150,
    "▁membuktikan": 9151,
    "▁paras": 9152,
    "▁parasit": 9153,
    "▁klaks": 9154,
    "▁klakson": 9155,
    "▁shoping": 9156,
    "▁ciduk": 9157,
    "ihal": 9158,
    "▁ayat": 9159,
    "▁boemi": 9160,
    "▁diet": 9161,
    "▁absen": 9162,
    "▁bingk": 9163,
    "▁panorama": 9164,
    "▁mencermin": 9165,
    "▁mencerminkan": 9166,
    "▁buncit": 9167,
    "dle": 9168,
    "▁wat": 9169,
    "etu": 9170,
    "▁maribaya": 9171,
    "▁lands": 9172,
    "▁landscap": 9173,
    "▁landscape": 9174,
    "▁peserta": 9175,
    "▁mengenakan": 9176,
    "▁timun": 9177,
    "▁mandarin": 9178,
    "ujuh": 9179,
    "isir": 9180,
    "▁menista": 9181,
    "▁amit": 9182,
    "amit": 9183,
    "ico": 9184,
    "▁setrasari": 9185,
    "▁hitungan": 9186,
    "▁legis": 9187,
    "▁chiken": 9189,
    "▁terput": 9190,
    "▁terputus": 9191,
    "▁ingkan": 9192,
    "▁pelajaran": 9193,
    "▁klop": 9194,
    "▁rama": 9195,
    "▁wind": 9196,
    "▁mengelilingi": 9197,
    "▁gramed": 9198,
    "face": 9199,
    "▁lawas": 9200,
    "▁supp": 9201,
    "▁atv": 9202,
    "▁concept": 9203,
    "▁peneg": 9204,
    "▁penegak": 9205,
    "▁etika": 9206,
    "▁waiter": 9207,
    "▁pesm": 9208,
    "▁pesmol": 9209,
    "▁kunci": 9211,
    "▁kebonj": 9212,
    "▁kebonjati": 9213,
    "ubur": 9214,
    "▁wijen": 9215,
    "▁lion": 9216,
    "▁kq": 9217,
    "▁mengarah": 9218,
    "ompong": 9219,
    "aft": 9220,
    "▁dibeg": 9221,
    "▁sound": 9222,
    "unjungan": 9223,
    "▁tmp": 9224,
    "jana": 9225,
    "▁ceria": 9226,
    "▁selangit": 9227,
    "▁gulali": 9228,
    "▁hei": 9229,
    "kit": 9230,
    "▁gizi": 9231,
    "▁disamakan": 9232,
    "▁target": 9233,
    "▁tweet": 9234,
    "▁twit": 9235,
    "▁sash": 9236,
    "▁sashimi": 9237,
    "ebek": 9238,
    "▁kecok": 9239,
    "▁kecoklatan": 9240,
    "▁nonmer": 9241,
    "▁nonmerokok": 9242,
    "▁tumbangkan": 9243,
    "bersama": 9244,
    "gas": 9245,
    "▁hadapi": 9246,
    "▁susana": 9247,
    "reet": 9248,
    "▁chop": 9249,
    "▁probl": 9250,
    "▁problem": 9251,
    "▁kawat": 9252,
    "▁angkasa": 9253,
    "▁direspon": 9254,
    "▁setapak": 9255,
    "▁mulia": 9256,
    "plore": 9257,
    "▁va": 9258,
    "▁melac": 9259,
    "▁sekol": 9260,
    "▁volum": 9261,
    "▁volume": 9262,
    "rop": 9263,
    "▁pengamat": 9264,
    "▁dibuatkan": 9265,
    "▁direk": 9266,
    "▁penggila": 9267,
    "▁meleg": 9268,
    "▁melegenda": 9269,
    "stan": 9270,
    "▁valentine": 9271,
    "▁zonk": 9272,
    "▁kiai": 9273,
    "▁ingg": 9274,
    "▁inggris": 9275,
    "▁nug": 9276,
    "▁bodi": 9277,
    "▁tangerang": 9278,
    "les": 9279,
    "lai": 9280,
    "ueh": 9281,
    "ederhana": 9282,
    "▁ditampilkan": 9283,
    "▁satupun": 9284,
    "▁berpend": 9285,
    "▁menyesuaikan": 9286,
    "▁spek": 9287,
    "akuler": 9288,
    "▁ds": 9289,
    "iskin": 9290,
    "▁majikan": 9291,
    "▁2000": 9292,
    "unyah": 9293,
    "▁strategi": 9294,
    "▁kompetitif": 9295,
    "▁nar": 9296,
    "▁membersihkan": 9297,
    "▁adu": 9298,
    "▁ws": 9299,
    "▁office": 9300,
    "dit": 9301,
    "▁digelar": 9302,
    "▁bertindak": 9303,
    "▁menyuruh": 9304,
    "dahulu": 9305,
    "▁ditulis": 9306,
    "▁eaton": 9307,
    "▁kepol": 9308,
    "▁kepolisian": 9309,
    "uangkan": 9310,
    "▁berkoalisi": 9311,
    "ihab": 9312,
    "▁puyunghai": 9313,
    "adaban": 9314,
    "▁05": 9315,
    "▁sekalilah": 9316,
    "▁menyeng": 9317,
    "house": 9318,
    "▁evilm": 9319,
    "▁evilmon": 9320,
    "▁evilmonkey": 9321,
    "▁pengem": 9322,
    "▁tersen": 9323,
    "▁tersenyum": 9324,
    "▁whatsap": 9325,
    "▁whatsapp": 9326,
    "▁dada": 9327,
    "way": 9328,
    "ecek": 9329,
    "▁dimasuk": 9330,
    "▁ditan": 9331,
    "▁belagu": 9332,
    "olitan": 9333,
    "keliling": 9334,
    "▁dirasa": 9335,
    "▁ponti": 9336,
    "▁pontianak": 9337,
    "egoro": 9338,
    "▁dikomb": 9339,
    "▁dikombin": 9340,
    "▁dikombinasikan": 9341,
    "▁magh": 9342,
    "▁maghrib": 9343,
    "▁majalah": 9344,
    "▁bejat": 9345,
    "▁tonton": 9346,
    "▁dipelihara": 9347,
    "▁dipetik": 9348,
    "▁lintas": 9349,
    "▁mahasiswi": 9350,
    "▁memus": 9351,
    "▁akting": 9352,
    "▁lampion": 9353,
    "▁mendominasi": 9354,
    "▁pengetahuan": 9355,
    "▁dangk": 9356,
    "▁dangkal": 9357,
    "▁ngotot": 9358,
    "icarakan": 9359,
    "▁1x": 9360,
    "▁sunsil": 9361,
    "▁sunsilk": 9362,
    "▁indosatcare": 9363,
    "▁pinangan": 9364,
    "▁menghadiri": 9365,
    "▁oil": 9366,
    "▁cuy": 9367,
    "▁mumpung": 9368,
    "▁antap": 9369,
    "▁antapani": 9370,
    "▁praw": 9371,
    "▁prawn": 9372,
    "▁gand": 9373,
    "olla": 9374,
    "bosan": 9375,
    "▁chips": 9376,
    "▁saik": 9377,
    "▁mbah": 9378,
    "upu": 9379,
    "▁pangkalan": 9380,
    "▁seled": 9381,
    "▁seledri": 9382,
    "▁dihadiri": 9383,
    "▁kerjasama": 9384,
    "▁mayst": 9385,
    "▁maystar": 9386,
    "▁memindah": 9387,
    "▁memindahkan": 9388,
    "ummy": 9389,
    "▁santan": 9390,
    "▁riung": 9391,
    "▁bertu": 9392,
    "emah": 9393,
    "▁ngesel": 9394,
    "▁ngeselkan": 9395,
    "▁aji": 9396,
    "▁sial": 9397,
    "▁sipit": 9398,
    "▁chasio": 9399,
    "▁ditinggal": 9400,
    "▁afford": 9401,
    "▁affordable": 9402,
    "aper": 9403,
    "▁setahun": 9404,
    "▁loyal": 9405,
    "▁loyalitas": 9406,
    "▁istiqom": 9407,
    "▁istiqomah": 9408,
    "rc": 9409,
    "▁komplek": 9410,
    "pat": 9411,
    "▁sumut": 9412,
    "▁dibes": 9413,
    "▁rutan": 9414,
    "esterol": 9415,
    "▁kelin": 9416,
    "▁kelinci": 9417,
    "▁rontok": 9418,
    "▁fuyunghai": 9419,
    "▁tetangga": 9420,
    "anas": 9421,
    "▁kepasti": 9422,
    "▁kepastian": 9423,
    "▁je": 9424,
    "▁bok": 9425,
    "▁menukarkan": 9426,
    "▁sind": 9427,
    "▁signat": 9428,
    "▁signature": 9429,
    "▁luang": 9430,
    "▁somad": 9431,
    "▁setidak": 9432,
    "▁setidaknya": 9433,
    "lee": 9434,
    "idup": 9435,
    "▁kritik": 9436,
    "▁bijak": 9437,
    "andai": 9438,
    "▁kesuk": 9439,
    "▁kesuks": 9440,
    "▁kesuksesan": 9441,
    "▁hangus": 9442,
    "ruk": 9443,
    "▁diceritakan": 9444,
    "▁pn": 9445,
    "▁dampingi": 9446,
    "anggakan": 9447,
    "▁bpk": 9448,
    "▁ditukarkan": 9449,
    "akas": 9450,
    "▁nangka": 9451,
    "inar": 9452,
    "▁februari": 9453,
    "▁direst": 9454,
    "▁direstoran": 9455,
    "▁psi": 9456,
    "▁menyad": 9457,
    "▁entahlah": 9458,
    "madiyah": 9459,
    "▁smir": 9460,
    "▁utuh": 9461,
    "hone": 9462,
    "rist": 9463,
    "kn": 9464,
    "▁depresi": 9465,
    "▁rusa": 9466,
    "▁crumble": 9467,
    "▁apbn": 9468,
    "▁gigi": 9469,
    "▁kron": 9470,
    "▁laris": 9471,
    "lucu": 9472,
    "▁md": 9473,
    "▁bik": 9474,
    "▁biksu": 9475,
    "▁hay": 9476,
    "▁asep": 9477,
    "▁leleh": 9478,
    "▁lulus": 9479,
    "▁crois": 9480,
    "▁leza": 9481,
    "▁lezaat": 9482,
    "▁perak": 9483,
    "▁abad": 9484,
    "▁tercantum": 9485,
    "umuri": 9486,
    "acara": 9487,
    "cik": 9488,
    "spot": 9489,
    "▁merch": 9490,
    "pondok": 9491,
    "▁playlist": 9492,
    "▁ketul": 9493,
    "▁seju": 9494,
    "▁boros": 9495,
    "▁injak": 9496,
    "▁beredar": 9497,
    "▁menyud": 9498,
    "▁menyudutkan": 9499,
    "▁memanfaatkan": 9500,
    "▁samar": 9501,
    "▁samarinda": 9502,
    "▁shopee": 9503,
    "▁simpati": 9504,
    "▁nampan": 9505,
    "▁jangankan": 9506,
    "▁buan": 9507,
    "▁buanyak": 9508,
    "▁doa": 9509,
    "▁oriental": 9510,
    "erus": 9511,
    "▁melip": 9512,
    "▁betina": 9513,
    "▁euy": 9514,
    "▁sukar": 9515,
    "▁nobar": 9516,
    "▁berlaku": 9517,
    "▁liat": 9518,
    "▁xi": 9519,
    "sad": 9520,
    "bapak": 9521,
    "main": 9522,
    "▁pompa": 9523,
    "▁butiran": 9524,
    "▁bejad": 9525,
    "▁disuka": 9526,
    "cous": 9527,
    "cousti": 9528,
    "coustic": 9529,
    "▁berjarak": 9530,
    "▁dif": 9531,
    "▁marly": 9532,
    "tamu": 9533,
    "▁kompas": 9534,
    "▁tunjang": 9535,
    "▁shampo": 9536,
    "aging": 9537,
    "▁searching": 9538,
    "▁bakp": 9539,
    "▁bakpau": 9540,
    "▁natuna": 9541,
    "▁axa": 9542,
    "▁melanggar": 9543,
    "▁kontur": 9544,
    "▁nget": 9545,
    "giana": 9546,
    "▁otten": 9547,
    "▁express": 9548,
    "eum": 9549,
    "▁hhe": 9550,
    "▁mengad": 9551,
    "▁ocha": 9552,
    "▁cook": 9553,
    "▁harg": 9554,
    "▁lawangwangi": 9555,
    "▁display": 9556,
    "▁kilo": 9557,
    "▁avail": 9558,
    "▁available": 9559,
    "▁perpanjangan": 9560,
    "▁pajangan": 9561,
    "▁poci": 9562,
    "berkali": 9563,
    "▁upgr": 9564,
    "▁upgrade": 9565,
    "yuk": 9566,
    "▁memukul": 9567,
    "iham": 9568,
    "▁tour": 9569,
    "omel": 9570,
    "▁memenangkan": 9571,
    "isahan": 9572,
    "▁kard": 9573,
    "▁kardus": 9574,
    "▁hello": 9575,
    "▁terlewat": 9576,
    "▁hajar": 9577,
    "▁seribu": 9578,
    "ehkan": 9579,
    "akatan": 9580,
    "▁basement": 9581,
    "▁indo": 9582,
    "▁gubug": 9583,
    "▁koi": 9584,
    "▁gatal": 9585,
    "▁bintar": 9586,
    "▁bintaro": 9587,
    "uddin": 9588,
    "▁memikir": 9589,
    "▁puki": 9590,
    "▁rusia": 9591,
    "▁ditu": 9592,
    "▁ditutupi": 9593,
    "▁perj": 9594,
    "▁perjanjian": 9595,
    "▁berker": 9596,
    "▁get": 9597,
    "▁penyok": 9598,
    "▁surat": 9599,
    "▁warunk": 9600,
    "▁eastern": 9601,
    "▁pepaya": 9602,
    "malukan": 9603,
    "▁dongk": 9604,
    "▁dongkol": 9605,
    "▁garan": 9606,
    "▁garansi": 9607,
    "angkai": 9608,
    "▁hubungkan": 9609,
    "iser": 9610,
    "box": 9611,
    "▁menetapkan": 9612,
    "▁pemba": 9613,
    "▁sim": 9614,
    "card": 9615,
    "wr": 9616,
    "▁dampak": 9617,
    "tun": 9618,
    "▁ditemankan": 9619,
    "▁lek": 9620,
    "▁zo": 9621,
    "▁gate": 9622,
    "▁perh": 9623,
    "▁ap2": 9624,
    "▁railink": 9625,
    "▁foods": 9626,
    "ebur": 9627,
    "▁yakult": 9628,
    "▁almamat": 9629,
    "▁almamater": 9630,
    "▁bouti": 9631,
    "▁boutique": 9632,
    "▁sit": 9633,
    "▁seragam": 9634,
    "▁monc": 9635,
    "zzy": 9636,
    "▁bobot": 9637,
    "▁bobotoh": 9638,
    "▁tog": 9639,
    "▁pelacuran": 9640,
    "▁univer": 9641,
    "▁universe": 9642,
    "▁menanti": 9643,
    "acem": 9644,
    "▁kembung": 9645,
    "▁holid": 9646,
    "▁holiday": 9647,
    "▁canai": 9648,
    "▁diangkat": 9649,
    "▁reply": 9650,
    "out": 9651,
    "orse": 9652,
    "▁makannan": 9653,
    "sekali": 9654,
    "▁jerat": 9655,
    "▁gim": 9656,
    "▁megah": 9657,
    "▁berhadapan": 9658,
    "▁neng": 9659,
    "▁dibenar": 9660,
    "▁dibenarkan": 9661,
    "▁dijelaskan": 9662,
    "▁kemer": 9663,
    "▁kemerdeka": 9664,
    "▁kemerdekaan": 9665,
    "▁menghemat": 9666,
    "▁tayang": 9667,
    "▁mayo": 9668,
    "▁menerus": 9669,
    "▁penghuni": 9670,
    "▁butek": 9671,
    "▁72": 9672,
    "▁baret": 9673,
    "▁tris": 9674,
    "▁cuek": 9675,
    "jan": 9676,
    "▁stream": 9677,
    "▁streaming": 9678,
    "▁sosok": 9679,
    "▁retro": 9680,
    "▁karangan": 9681,
    "▁pemot": 9682,
    "▁their": 9683,
    "▁relaxing": 9684,
    "▁dimod": 9685,
    "▁puaskan": 9686,
    "ohor": 9687,
    "▁022": 9688,
    "rn": 9689,
    "▁temap": 9690,
    "▁indomaret": 9691,
    "▁kadalu": 9692,
    "▁kadaluarsa": 9693,
    "▁dibunuh": 9694,
    "ket": 9695,
    "▁secur": 9696,
    "▁security": 9697,
    "▁primitif": 9698,
    "▁natali": 9699,
    "▁pigai": 9700,
    "▁menyasar": 9701,
    "▁modus": 9702,
    "▁psis": 9703,
    "▁siregar": 9704,
    "▁hon": 9705,
    "▁terbalik": 9706,
    "▁sadis": 9707,
    "▁tuan": 9708,
    "▁ndes": 9709,
    "▁ndeso": 9710,
    "ating": 9711,
    "▁komikus": 9712,
    "achi": 9713,
    "▁buil": 9714,
    "▁building": 9715,
    "▁raisin": 9716,
    "▁alcoh": 9717,
    "▁alcohol": 9718,
    "▁veget": 9719,
    "▁memasang": 9720,
    "▁armando": 9721,
    "▁awes": 9722,
    "▁awesome": 9723,
    "▁abs": 9724,
    "▁banya": 9725,
    "▁banyaak": 9726,
    "▁penarikan": 9727,
    "▁tama": 9728,
    "▁disebutkan": 9729,
    "▁bacok": 9730,
    "manusia": 9731,
    "▁dilahirkan": 9732,
    "▁keterlibatan": 9733,
    "sch": 9734,
    "▁sho": 9735,
    "▁parker": 9736,
    "arian": 9737,
    "▁ludah": 9738,
    "amal": 9739,
    "▁diket": 9740,
    "▁tump": 9741,
    "ekal": 9742,
    "lor": 9743,
    "▁februar": 9744,
    "▁february": 9745,
    "▁skin": 9746,
    "▁spinach": 9747,
    "▁garlic": 9748,
    "eps": 9749,
    "eni": 9750,
    "▁menahan": 9751,
    "▁sebaga": 9752,
    "▁penyelengg": 9753,
    "▁speciality": 9754,
    "▁putra": 9755,
    "▁pudji": 9756,
    "▁pudjiast": 9757,
    "▁pudjiastuti": 9758,
    "▁roasting": 9759,
    "▁gri": 9760,
    "▁griya": 9761,
    "▁sundae": 9762,
    "▁bersedia": 9763,
    "▁mp": 9764,
    "▁mpulkan": 9765,
    "ium": 9766,
    "mah": 9767,
    "ida": 9768,
    "▁rain": 9769,
    "▁rainb": 9770,
    "▁rainbow": 9771,
    "openg": 9772,
    "▁tertangkap": 9773,
    "▁kapolri": 9774,
    "▁sejahtera": 9775,
    "▁ojek": 9776,
    "▁etnis": 9777,
    "▁dewan": 9778,
    "anga": 9779,
    "▁menyul": 9780,
    "▁menyulitkan": 9781,
    "▁gold": 9782,
    "▁64": 9783,
    "dy": 9784,
    "ward": 9785,
    "▁nyesek": 9786,
    "▁ditawari": 9787,
    "fund": 9788,
    "▁nganc": 9789,
    "▁ngancem": 9790,
    "▁fikir": 9791,
    "▁dinginkan": 9792,
    "▁dengkul": 9793,
    "▁lif": 9794,
    "▁populasi": 9795,
    "▁males": 9796,
    "pis": 9797,
    "▁kesen": 9798,
    "▁acuh": 9799,
    "▁country": 9800,
    "▁pelayan2": 9801,
    "ahukan": 9802,
    "▁smooth": 9803,
    "▁menemb": 9804,
    "▁balista": 9805,
    "▁kemp": 9806,
    "▁dilatih": 9807,
    "▁mudik": 9808,
    "▁keistimewa": 9809,
    "▁keistimewaan": 9810,
    "▁analis": 9811,
    "▁fatal": 9812,
    "▁pembic": 9813,
    "▁pembicaraan": 9814,
    "▁izin": 9815,
    "▁peres": 9816,
    "▁disep": 9817,
    "undi": 9818,
    "▁dicontoh": 9819,
    "alif": 9820,
    "▁senanti": 9821,
    "▁senantiasa": 9822,
    "▁sepihak": 9823,
    "▁pertimbangkan": 9824,
    "▁menyelamat": 9825,
    "▁menyelamatkan": 9826,
    "bakar": 9827,
    "▁kampoeng": 9828,
    "▁uh": 9829,
    "▁pertan": 9830,
    "▁pertanian": 9831,
    "▁traktir": 9832,
    "▁egg": 9833,
    "▁masker": 9834,
    "▁kewalahan": 9835,
    "▁yogurt": 9836,
    "▁teranc": 9837,
    "▁terancam": 9838,
    "▁elite": 9839,
    "▁liga": 9840,
    "▁disiarkan": 9841,
    "▁cow": 9842,
    "▁cowok": 9843,
    "▁door": 9844,
    "▁pass": 9845,
    "▁rab": 9846,
    "▁miliki": 9847,
    "▁aset": 9848,
    "▁memukau": 9849,
    "▁dng": 9850,
    "▁merk": 9851,
    "▁ideologi": 9852,
    "▁syirik": 9853,
    "balik": 9854,
    "▁2007": 9855,
    "▁sejati": 9856,
    "▁militer": 9857,
    "▁senen": 9858,
    "▁hav": 9859,
    "▁eff": 9860,
    "▁padanan": 9861,
    "▁pengel": 9862,
    "▁pengelol": 9863,
    "▁pengelolaan": 9864,
    "▁berstand": 9865,
    "▁tian": 9866,
    "▁batok": 9867,
    "▁teguran": 9868,
    "hua": 9869,
    "▁merendah": 9870,
    "▁merendahkan": 9871,
    "▁bersel": 9872,
    "▁sutar": 9873,
    "▁ajakan": 9874,
    "▁boy": 9875,
    "▁dihina": 9876,
    "▁bertiga": 9877,
    "▁jern": 9878,
    "▁jernih": 9879,
    "▁diomong": 9880,
    "▁diomongin": 9881,
    "▁nong": 9882,
    "▁dihari": 9883,
    "▁italian": 9884,
    "▁dilanjutkan": 9885,
    "▁maksa": 9886,
    "▁bata": 9887,
    "▁bersiaplah": 9888,
    "▁dipanggang": 9889,
    "▁seab": 9890,
    "▁inov": 9891,
    "▁inovatif": 9892,
    "▁berlalu": 9893,
    "▁struktur": 9894,
    "ampau": 9895,
    "usun": 9896,
    "kul": 9897,
    "▁wuih": 9898,
    "tafel": 9899,
    "▁love": 9900,
    "▁final": 9901,
    "edian": 9902,
    "▁saka": 9903,
    "▁retweet": 9904,
    "▁bniqu": 9905,
    "▁bniquotes": 9906,
    "▁teknologi": 9907,
    "▁menab": 9908,
    "▁areng": 9909,
    "▁hyat": 9910,
    "▁hyatt": 9911,
    "▁ending": 9912,
    "▁tagar": 9913,
    "inger": 9914,
    "▁tobat": 9915,
    "▁served": 9916,
    "▁360": 9917,
    "▁derajat": 9918,
    "▁pelantikan": 9919,
    "▁adm": 9920,
    "▁admini": 9921,
    "▁administrasi": 9922,
    "▁terin": 9923,
    "▁moti": 9924,
    "▁motivasi": 9925,
    "▁utan": 9926,
    "▁bergoyang": 9927,
    "▁blub": 9928,
    "baso": 9929,
    "▁fau": 9930,
    "▁drastis": 9931,
    "▁dilawan": 9932,
    "▁dilokasi": 9933,
    "▁bersep": 9934,
    "ediaan": 9935,
    "untungan": 9936,
    "▁terpenuhi": 9937,
    "▁wing": 9938,
    "▁bakat": 9939,
    "▁mengaktif": 9940,
    "▁mengaktifkan": 9941,
    "othi": 9942,
    "othies": 9943,
    "▁perso": 9944,
    "▁persoalan": 9945,
    "ution": 9946,
    "▁menyemb": 9947,
    "agn": 9948,
    "osa": 9949,
    "ukah": 9950,
    "▁mengancam": 9951,
    "▁pasrah": 9952,
    "kirkan": 9953,
    "▁diblok": 9954,
    "▁numpang": 9955,
    "▁syukurlah": 9956,
    "ree": 9957,
    "▁terdak": 9958,
    "▁terdakwa": 9959,
    "▁laron": 9960,
    "▁menyalahkan": 9961,
    "▁bangka": 9962,
    "▁mencalonkan": 9963,
    "▁disempatkan": 9964,
    "▁cold": 9965,
    "chi": 9966,
    "akes": 9967,
    "▁penyebab": 9968,
    "▁kompeten": 9969,
    "▁town": 9970,
    "▁chen": 9971,
    "▁kemal": 9972,
    "▁kebayang": 9973,
    "▁speed": 9974,
    "▁polusi": 9975,
    "▁kelelah": 9976,
    "▁kelelahan": 9977,
    "▁skept": 9978,
    "▁skeptis": 9979,
    "▁oyen": 9980,
    "▁jelekkan": 9981,
    "▁fruit": 9982,
    "▁47": 9983,
    "otaan": 9984,
    "▁panduan": 9985,
    "▁hidangkan": 9986,
    "▁diskrim": 9987,
    "▁usut": 9988,
    "▁blbi": 9989,
    "▁ketakutan": 9990,
    "▁kelah": 9991,
    "▁kelahiran": 9992,
    "▁jelly": 9994,
    "endakan": 9995,
    "▁nj": 9996,
    "bale": 9997,
    "▁muja": 9998,
    "▁mujaer": 9999,
    "▁ozt": 10000,
    "▁dikateg": 10001,
    "▁dikategor": 10002,
    "▁dikategorikan": 10003,
    "▁keberatan": 10004,
    "▁bebatuan": 10005,
    "plor": 10006,
    "▁mojok": 10007,
    "▁deskrip": 10008,
    "▁deskripsi": 10009,
    "▁cengek": 10010,
    "▁makyus": 10011,
    "▁spbu": 10012,
    "▁large": 10013,
    "▁laknatullah": 10014,
    "▁besarkan": 10015,
[...]
